e r
a n
i n
e l
S L
SL M
a t
e n
U s
Us er
User :</w>
SLM :</w>
o d
o n
l e
o r
an d</w>
y o
r o
a l</w>
yo u</w>
g u
i on
i s</w>
c e
an gu
angu a
angua g
anguag e</w>
t h
a t</w>
m a
r e
at ion
el l
in g</w>
h at</w>
u s
e l</w>
P y
in g
c i
i g
c a
a s
i t
t o</w>
o r</w>
L a
t o
S ma
Sma l
Smal l</w>
L anguage</w>
M od
o n</w>
f or
en ce
ca n</w>
W hat</w>
a r
La w
Law SLM
Mod el</w>
u i
c o
co m
com p
c h</w>
Py th
e d</w>
ing ,</w>
a m
p ro
f i
fi ci
t i
t e
H o
Ho w</w>
w it
wit h</w>
t od
tod a
toda y
today ?</w>
o u
w h
wh o</w>
a m</w>
LawSLM ,</w>
c us
cus to
custo m</w>
b ui
bui l
buil t</w>
el y</w>
f ro
fro m</w>
s c
sc r
scr at
scrat ch</w>
Pyth on</w>
for m
ation ,</w>
s .</w>
f or</w>
d o
u m
en t</w>
s ,</w>
d e
t ell
tell ig
ence ,</w>
c t</w>
H ell
Hell o
Hello !</w>
as s
ass i
assi s
assis t</w>
l anguage</w>
m od
h el
hel p</w>
e y</w>
l i
li k
lik e</w>
le ar
comp le
comple t
complet ely</w>
us ing</w>
Py T
PyT or
PyTor c
PyTorc h
PyTorch .</w>
c re
cre at
creat ed</w>
le g
leg al</w>
in form
inform ation,</w>
c od
A I</w>
t as
tas k
w hat</w>
n am
nam e</w>
m e</w>
pro g
prog r
progr am
program m
r i
c on
ing .</w>
e f
ef fici
effici ent</w>
t r
e r</w>
n e
w or
f er
ig h
ti fici
tifici al</w>
in tellig
intellig ence,</w>
o p
m en
men t
e s</w>
el f
elf -
elf- at
elf-at t
elf-att en
elf-atten ti
elf-attenti on</w>
comp u
u ct</w>
o v
q u
k e
s y
sy s
sys te
s o
h ell
hell o</w>
mod el
model ing</w>
h i</w>
h ey</w>
H ey</w>
th er
ther e
there !</w>
w ou
wou l
woul d</w>
lear n</w>
e x
ex p
exp l
expl or
explor e</w>
ma d
mad e</w>
ar e</w>
cod ing,</w>
g en
gen er
gener al</w>
task s.</w>
yo u
you r</w>
M y</w>
LawSLM .</w>
d o</w>
programm ing,</w>
do c
doc um
docum ent</w>
s um
sum ma
summa ri
summari z
summariz ation,</w>
con ce
conce p
concep t
concept s,</w>
w r
wr it
writ ing.</w>
Mod el
Model ?</w>
( SLM
(SLM )</w>
a n</w>
de cod
decod er
decoder -
decoder- on
decoder-on l
decoder-onl y</w>
tr an
tran s
trans form
transform er</w>
ne u
neu r
neur al</w>
ne t
net wor
networ k</w>
de s
des ig
desig n
design ed</w>
r a
ra p
rap i
rapi d</w>
tr a
tra in
train ing</w>
re s
res ou
resou r
resour ce
resource -
resource- efficient</w>
in fer
infer ence
inference .</w>
Pyth on
Python ?</w>
h igh
high -
high- le
high-le v
high-lev el</w>
programm ing</w>
w i
wi d
wid ely</w>
us ed</w>
ar tificial</w>
w e
we b</w>
de v
dev el
devel op
develop ment
development ,</w>
d at
dat a</w>
s ci
sci ence,</w>
a u
au to
auto m
autom ation
automation .</w>
do es</w>
s elf-attention</w>
wor k
work ?</w>
S elf-attention</w>
compu te
compute s</w>
s ca
sca le
scale d</w>
do t
dot -
dot- p
dot-p r
dot-pr od
dot-prod uct</w>
m at
mat ri
matri x</w>
op er
oper ation
operation s</w>
ov er</w>
qu er
quer i
queri e
querie s,</w>
ke y
key s,</w>
v a
va l
val u
valu es</w>
mod el</w>
to ke
toke n</w>
r el
rel ation
relation s
relations h
relationsh i
relationshi p
relationship s</w>
a c
ac ro
acro s
acros s</w>
s e
se qu
sequ ence
sequence s.</w>
l a
la w
law ?</w>
La w</w>
syste m</w>
o f</w>
r u
ru le
rule s</w>
en for
enfor ce
enforce d</w>
th ro
thro u
throu g
throug h</w>
so ci
soci al</w>
g ov
gov er
gover n
govern ment
government al</w>
in s
ins t
inst it
instit u
institu t
institut ion
institution s</w>
re gu
regu l
regul at
regulat e</w>
con d
cond uct</w>
pro te
prote ct</w>
r igh
righ t
right s.</w>
T el
Tel l</w>
a b
ab ou
abou t</w>
A I
AI .</w>
A r
Ar tificial</w>
I n
In tellig
Intellig en
Intelligen c
Intelligenc e</w>
re fer
refer s</w>
compu t
comput ation
computation al</w>
syste m
system s</w>
th at</w>
p er
per for
perfor m</w>
task s</w>
re q
req ui
requi r
requir ing</w>
h um
hum an
human -
human- like</w>
s u
su ch</w>
a s</w>
lear n
learn ing,</w>
re as
reas on
reason ing,</w>
pro b
prob le
proble m</w>
so l
sol v
solv ing.</w>
