t h
th e</w>
i n
a n
e d</w>
e r
r e
a r
t i
o f</w>
an d</w>
o n
e r</w>
o r
e n
o n</w>
i n</w>
in g</w>
o u
t o</w>
a s</w>
i t
a l
s t
e s</w>
a t
r o
h i
h e</w>
a t</w>
a l</w>
a c
a n</w>
s i
e l
r i
o r</w>
s t</w>
e c
o m
u r
w as</w>
a m
l i
e n</w>
l y</w>
d i
e a
ti on</w>
T he</w>
@ -
@- @</w>
i s</w>
i l
o l
i c
h a
l a
d e
l e</w>
th at</w>
r a
' s</w>
o w
e m
it h</w>
f or</w>
u n
v e</w>
b y</w>
b e
w ith</w>
c h</w>
s e</w>
en t</w>
i r
c on
en t
s u
er e</w>
v i
c h
a g
th e
t h</w>
c e</w>
i s
1 9
s e
s p
p ro
hi s</w>
er s</w>
ou n
l o
a d
l e
b u
p o
v er
c om
w h
ro m</w>
f or
t ed</w>
f rom</w>
g h
ti on
i t</w>
a s
o p
t s</w>
n o
a b
e x
2 0
t er</w>
e s
w hi
a tion</w>
a p
s h
w ere</w>
m o
a y</w>
d s</w>
th er</w>
r u
e v
re c
i m
t er
s c
d ing</w>
o o
t w
at ed</w>
s ed</w>
at e</w>
u l
d ed</w>
am e</w>
d e</w>
it y</w>
l u
e ar
p re
i r</w>
ar e</w>
d u
q u
ha d</w>
l d</w>
p er
t a
m a
f f
whi ch</w>
I n</w>
al l</w>
in g
on e</w>
g u
n e
b e</w>
t r
p ar
on g</w>
s o</w>
ou t</w>
f ir
o c
e p
in c
g h</w>
al ly</w>
b er</w>
m an
ti m
it s</w>
tion s</w>
l ea
f i
g e</w>
a r</w>
gh t</w>
p or
u m
a u
in e</w>
i es</w>
si on</w>
S t
ar y</w>
s on</w>
bu t</w>
d er
e st
20 0
k e</w>
the ir</w>
ow n</w>
s er
no t</w>
t ur
v er</w>
p l
e t</w>
r ou
T h
b o
fir st</w>
at t
w or
C h
e t
e st</w>
ti c
p u
f ter</w>
v ed</w>
p la
ou ld</w>
h er</w>
al so</w>
or e</w>
d er</w>
l ed</w>
r an
s s</w>
oun d</w>
t o
0 0</w>
s a
ha ve</w>
n i
ar d</w>
c a
ac k</w>
g i
e l</w>
ag e</w>
h as</w>
ou r
com p
al i
f e
om e</w>
be en</w>
s h</w>
tw o</w>
st or
ent s</w>
@ .
@. @</w>
con t
c o
en ce</w>
o ther</w>
s hi
m ent</w>
k s</w>
du c
b ec
th is</w>
t ing</w>
t e</w>
l ow
l and</w>
ea r</w>
at er</w>
ur ing</w>
wh o</w>
the y</w>
g o
w i
20 1
s ec
el y</w>
m il
m u
f in
ou s</w>
i g
sp ec
H e</w>
r it
com m
k ing</w>
I n
ti ve</w>
inc lu
on s</w>
1 8
@ ,
@, @</w>
ri c
for m
ou r</w>
u s</w>
tim e</w>
e i
n ed</w>
a fter</w>
o g
i d</w>
re e</w>
el l</w>
it e</w>
pre s
A l
an t</w>
re n
re s</w>
si g
m e
I t</w>
tion al</w>
st r
t ra
em ber</w>
ad e</w>
m in
u s
in to</w>
c i
e en</w>
m ore</w>
p a
h o
p ri
p e
M ar
th ou
k ed</w>
w ould</w>
c ent
t y</w>
pla y
ab le</w>
ev er</w>
ur e</w>
u p</w>
l an
ac e</w>
it ed</w>
w ay</w>
R o
al s</w>
o ver</w>
ch ar
i d
ag a
mo st</w>
ti c</w>
n a
i c</w>
e d
f t</w>
r e</w>
t en
er n</w>
l ar
an ce</w>
v ing</w>
ing s</w>
l es</w>
in ed</w>
a y
e y</w>
A n
in ter
A u
in s</w>
o ff
s ea
on ly</w>
e w</w>
es s</w>
m an</w>
f il
m ar
wh en</w>
ac h
st ru
c es</w>
at es</w>
b li
n ing</w>
t u
d o
d uring</w>
an y</w>
d ec
m er
s he</w>
a re
on d</w>
ti es</w>
v el
ic al</w>
th an</w>
g en
e w
s es</w>
E n
s el
f u
k n
c ol
c re
tw een</w>
f a
hi m</w>
ab out</w>
ap p
19 9
on g
g ame</w>
i al</w>
lo c
B ri
ac h</w>
p p
w rit
whi le</w>
J o
s ti
p s</w>
th ree</w>
ol d</w>
v es</w>
e e
ear s</w>
shi p</w>
a d</w>
en d</w>
c c
be tween</w>
m on
g ra
a tions</w>
rec or
p i
th rou
thou gh</w>
f ol
sc ri
n um
for e</w>
st ar
A r
ar i
C om
s y
u sed</w>
U n
stru c
l ater</w>
an s</w>
sea son</w>
u m</w>
t e
o f
h ea
ic e</w>
oo k</w>
be g
n or
m ade</w>
c oun
ou th</w>
g re
b le</w>
wh ere</w>
c la
pro duc
t or
ne w</w>
d ay</w>
A mer
Amer ic
re lea
s ing</w>
s ur
t en</w>
em p
b er
ur y</w>
L i
h el
il l</w>
l s</w>
0 00</w>
em ent</w>
o ver
am es</w>
r ed</w>
the m</w>
su ch</w>
an g
at ing</w>
c al
l ing</w>
s si
N o
y ear</w>
pu bli
s ome</w>
ro w
m i
wi th
bu il
T his</w>
d y</w>
W h
ar ds</w>
c an</w>
O n</w>
es s
su b
P ar
al bu
t ro
s ong</w>
f e</w>
be fore</w>
tur e</w>
be ing</w>
si de</w>
en ti
y ears</w>
fol low
En g
c ri
sh ed</w>
w ell</w>
ow ever</w>
o b
p h
g r
man y</w>
a m</w>
kn own</w>
o d</w>
ec ted</w>
la r</w>
s m
d re
oo d</w>
an n
vi sion</w>
t ri
st e
b i
ec t</w>
ser ies</w>
par t</w>
N or
v en</w>
albu m</w>
is o
th en</w>
po in
y p
ear ly</w>
g a
stor y</w>
c ap
si c</w>
J u
l ine</w>
lo w</w>
throu gh</w>
st s</w>
b el
N a
or t</w>
f ic
m at
sec ond</w>
con si
t ly</w>
bo th</w>
ver al</w>
in ce</w>
au se</w>
e g
e se</w>
po si
c ed</w>
in st</w>
y ing</w>
a w
inclu ding</w>
r y</w>
t on</w>
N ew</w>
fil m</w>
m s</w>
aga inst</w>
f ac
num ber</w>
di rec
bec ame</w>
ep iso
st u
st er</w>
n o</w>
an d
d es</w>
char ac
e b
por t</w>
as s
c hi
t ers</w>
m y</w>
tr an
Jo h
19 8
m p
n am
th ere</w>
an i
de scri
su p
f er
M o
Un ited</w>
or ig
ol og
s ing
in i
de vel
per i
1 0</w>
al e</w>
in v
th o
c u
su cc
en g
cent ury</w>
i ly</w>
ver y</w>
l in
C ar
di c
con c
t or</w>
f our</w>
cont in
ti sh</w>
or s</w>
re ma
v o
li on</w>
su l
ti v
ac c
C on
B o
wor k</w>
se veral</w>
em b
er ed</w>
A fter</w>
un der</w>
s ch
di ff
en d
beg an</w>
ar ri
t le</w>
D i
ay s</w>
t re
sh o
c ha
19 7
19 6
de p
in f
ea m</w>
devel op
19 4
ac k
l er</w>
b or
b as
li ke</w>
comp le
orig in
R i
op er
0 s</w>
ta in</w>
cal led</w>
b ed</w>
episo de</w>
j u
f ound</w>
W or
d o</w>
contin u
tr y</w>
ti l</w>
M a
rec ei
A s</w>
is h</w>
op le</w>
is h
hi gh
w in
a ir
s ol
l l</w>
sel f</w>
un i
c ity</w>
st ed</w>
no w</w>
j o
c ould</w>
b ack</w>
sa id</w>
un e</w>
fe at
or y</w>
Americ an</w>
z ed</w>
se t</w>
n s</w>
the se</w>
m ay</w>
gu e</w>
e ach</w>
at h</w>
G er
gen er
in ing</w>
or k</w>
Bri tish</w>
de sig
un til</w>
po li
relea sed</w>
tic al</w>
ser v
C ol
f am
s ame</w>
o re
di d</w>
p r
ur ch</w>
vi ew
of f</w>
c lo
D e
fu l</w>
oc i
d on</w>
ep t
2 0</w>
g g
i l</w>
th ern</w>
re tur
ver s
app ear
3 0</w>
Th ey</w>
o u</w>
ex p
der ed</w>
t el
are a</w>
le y</w>
di st
w ard</w>
an e</w>
re a
re as
n e</w>
bec ause</w>
O c
is ed</w>
st a
H i
form ed</w>
si ve</w>
mil lion</w>
Au gu
e y
I I</w>
o m</w>
r on
d ra
el d</w>
ec tion</w>
d own</w>
v el</w>
Ch ri
off ic
u se</w>
an t
pe ople</w>
Joh n</w>
5 0</w>
b ro
m e</w>
b all</w>
b l
li fe</w>
di sc
al ong</w>
u p
S he</w>
t eam</w>
di s
W il
e al
tr ac
di tion</w>
ar ound</w>
g rou
H owever</w>
d el
Au str
c am
t es</w>
po pu
li sh</w>
A t</w>
go ver
for m</w>
ow er</w>
S ept
b ri
ir d</w>
n er</w>
M ay</w>
la tion</w>
Sept ember</w>
pl ac
Augu st</w>
R e
follow ing</w>
l ong</w>
ent ed</w>
c lu
C an
cont ro
m is
tic s</w>
Austr ali
Wor ld</w>
un der
s k
fi ve</w>
si d
I s
re sul
mu sic</w>
s s
k m</w>
na tional</w>
al es</w>
lar ge</w>
re qu
u ro
c ur
wh at</w>
re e
G u
w ee
n ment</w>
s ou
J an
sp on
d am
lo o
il l
1 5</w>
ste m</w>
J une</w>
st ate</w>
or g
i p
P o
or ding</w>
e f
r al</w>
1 2</w>
b a
ma j
h ou
19 5
in ten
v ari
por t
n ame</w>
de f
ex t</w>
s ince</w>
St ates</w>
pla y</w>
l y
spec ies</w>
C a
fin al</w>
recei ved</w>
P ro
ar ly</w>
F ran
f ul
t ook</w>
oo l</w>
e ff
at ely</w>
M on
re g
ea st</w>
en ed</w>
ou t
par tic
W ar</w>
D u
a st</w>
ad v
t t
pro vi
si on
si ons</w>
b att
descri bed</w>
M u
ap pro
fi ed</w>
Oc to
Octo ber</w>
em ents</w>
w ill</w>
ar t</w>
p as
m ed</w>
ea d</w>
play ed</w>
pl ace</w>
mo ved</w>
ro ss</w>
hi gh</w>
a i
lar g
L o
ev en</w>
or d
ol e</w>
E uro
19 3
p ical</w>
k es</w>
h al
S outh</w>
f un
en s</w>
de o</w>
shi ps</w>
w ro
wro te</w>
gr ound</w>
li c
U ni
s om
ou s
g e
Ju ly</w>
por ted</w>
am p
l ate</w>
. .
nam ed</w>
posi tion</w>
y s</w>
w on</w>
tim es</w>
v ic
du e</w>
con struc
S h
se qu
u ary</w>
re li
C oun
t yp
D uring</w>
mu ch</w>
1 6
th er
v en
c ul
No v
sing le</w>
c er
A pri
Apri l</w>
re la
H er
ent ly</w>
Nor th</w>
f ri
vi ew</w>
m et
1 7
olog y</w>
D ec
m en</w>
k il
.. .</w>
w est</w>
me di
dec i
l it
c ra
an other</w>
inclu ded</w>
recor d</w>
in st
D a
fi eld</w>
Jan uary</w>
S u
1 6</w>
2 5</w>
om an</w>
re spon
with in</w>
em s</w>
est ab
Eng land</w>
s on
1 4</w>
si s</w>
diff er
po sed</w>
Y ork</w>
an c
buil t</w>
er y</w>
bas ed</w>
i f</w>
ag es</w>
al though</w>
le ft</w>
att emp
om in
i a</w>
fam ily</w>
ag ed</w>
ong s</w>
c au
st ri
1 8</w>
t al</w>
pro t
h er
g ames</w>
bel i
s ite</w>
le ss</w>
Mar ch</w>
d ge</w>
ch es</w>
pre vi
ma in</w>
ig n</w>
Nov ember</w>
s en
ei ght</w>
s our
li ght</w>
z e</w>
k en</w>
si x</w>
P re
P er
y ed</w>
il ity</w>
r un
th ing</w>
ch ed</w>
sm all</w>
h ome</w>
u c
ca re
w ater</w>
sy stem</w>
1 1</w>
in a</w>
le g
s o
en ded</w>
nor th</w>
Dec ember</w>
th ird</w>
on y</w>
s it
th em
st an
grou p</w>
tho se</w>
t ow
sho w</w>
c ar
spec i
v y</w>
ju st</w>
b ur
ur ric
or ed</w>
la st</w>
or i
di an</w>
stor m</w>
au th
C ity</w>
en er
origin al</w>
b ook</w>
n ear</w>
gover nment</w>
re gi
V i
charac ter</w>
c or
j ect</w>
s outh</w>
li m
ic k</w>
k er</w>
H o
wor ld</w>
am pi
ach ed</w>
c ou
at s</w>
th ers</w>
at ure</w>
be st</w>
H is</w>
p e</w>
do m</w>
w ar</w>
A d
1 3</w>
a ti
t a</w>
Wh en</w>
k e
vers ity</w>
Ger man</w>
it ary</w>
th s</w>
G e
it al</w>
200 9</w>
m ents</w>
vi deo</w>
u e</w>
in es</w>
200 8</w>
201 0</w>
ec h
s ure</w>
pl an
som e
ec ts</w>
Na tional</w>
ma ke</w>
y l
for man
hea d</w>
B u
ou gh</w>
di vi
is su
F e
v al</w>
R a
de ath</w>
g ed</w>
estab li
al low
Th ere</w>
1 7</w>
di o</w>
en ces</w>
tr ack</w>
ar ti
play er</w>
ch an
' t</w>
M c
po ssi
f ur
et y</w>
en n
ri bu
ro le</w>
sti ll</w>
U S</w>
in t</w>
v il
en ing</w>
ir ed</w>
Ch ar
Ri ver</w>
c our
st ern</w>
ser ved</w>
sti tu
maj or</w>
re ad
hi story</w>
B ar
ow n
F or
of ten</w>
urric ane</w>
succ ess
w ea
ver sion</w>
to p</w>
1 00</w>
row n</w>
r ing</w>
c al</w>
continu ed</w>
v al
1 9</w>
B y</w>
oun d
il ed</w>
comp any</w>
in d</w>
si mil
n ext</w>
consi dered</w>
m er</w>
d en</w>
r ac
ha m</w>
200 7</w>
ac t</w>
p ur
ous ly</w>
su gg
r am
recor ded</w>
oc k</w>
y le</w>
publi shed</w>
F ren
p er</w>
ch ang
L ea
chi l
care er</w>
O ne</w>
u al</w>
b and</w>
aga in</w>
se ar
hel d</w>
per forman
p hi
ini ti
t own</w>
peri od</w>
c ame</w>
S e
oo t
B e
tran s
ta ke</w>
di es</w>
B att
sh ow
qu ar
i li
b ir
inc reas
Eng lish</w>
M an
al l
v a
hal f</w>
y ou</w>
with out</w>
publi c</w>
s ongs</w>
L e
Fren ch</w>
writ ten</w>
al ity</w>
loc al</w>
sig ned</w>
S .</w>
sp ite</w>
e f</w>
2 1</w>
S p
d ays</w>
i st
ev ed</w>
e m</w>
bo dy</w>
A cc
tiv ely</w>
s ses</w>
f el
di sp
re fer
f f</w>
re pres
a th
p ower</w>
St ate</w>
ep t</w>
R ec
form er</w>
m emb
dre n</w>
sup port</w>
G re
f l
A t
gh out</w>
B ra
gh ts</w>
c an
201 1</w>
relea se</w>
poin t</w>
b ar
fe w</w>
clu b</w>
plac ed</w>
am s</w>
b s</w>
tro pical</w>
bec ome</w>
sc en
p ed</w>
Di vision</w>
u res</w>
wh ite</w>
200 6</w>
ul t</w>
C or
Al though</w>
est ed</w>
us ing</w>
h owever</w>
im port
In ter
ir e</w>
w ar
di ed</w>
M ic
fi c</w>
fur ther</w>
d ro
2 3</w>
S a
est ern</w>
Acc ording</w>
differ ent</w>
ish ed</w>
ti tle</w>
ro ad</w>
h ar
an ts</w>
ra tion</w>
mil itary</w>
eb ru
2 8</w>
g es</w>
produc tion</w>
y c
w in</w>
S er
o l</w>
de st
ac tion</w>
Lea gue</w>
ru n</w>
y al</w>
sig ni
cla im
ri ght</w>
i an</w>
ne w
pro c
d ri
st on</w>
F ebru
Febru ary</w>
m or
hi stor
G ener
A f
ex c
2 4</w>
l d
ho w</w>
v e
ro w</w>
W hi
g et</w>
ga ve</w>
produc ed</w>
F or</w>
T w
M is
ch urch</w>
w at
D yl
Dyl an</w>
am ong</w>
2 2</w>
ex ten
u ally</w>
Ch urch</w>
ur ed</w>
4 0</w>
or der</w>
201 2</w>
e vision</w>
el l
ch o
de fe
memb ers</w>
ber t</w>
d en
l ack</w>
chil dren</w>
our s</w>
F in
ep tion</w>
for ces</w>
st ated</w>
C o
w e</w>
se en</w>
mo der
c y</w>
p it
J ap
f ore
hi m
simil ar</w>
ha ving</w>
inclu de</w>
Ge or
oun g</w>
ma in
r a</w>
s ent</w>
h um
tor y</w>
est s</w>
R ic
comm on</w>
an g</w>
f ace</w>
signi fic
h y
inv ol
p ra
op s</w>
ali on</w>
lo st</w>
inf lu
T im
a k
sid ent</w>
2 6</w>
gi ven</w>
Com p
C hi
con ta
v a</w>
sh ort</w>
l at
k et</w>
sch ool</w>
st ar</w>
el s</w>
man ag
ma king</w>
s ha
fir e</w>
v ol
Al l</w>
di tional</w>
s w
at ter
B er
f es
og ra
201 3</w>
t ru
S im
N i
develop ed</w>
contro l</w>
e vi
f ron
re ported</w>
a way</w>
lea d</w>
cra ft</w>
qu e</w>
ne y</w>
A b
Q u
d ers</w>
po s
ev ent
is m</w>
C ha
com man
Gener al</w>
P e
col l
ci al</w>
on es</w>
tor s</w>
w ards</w>
to tal</w>
Whi le</w>
w ent</w>
S co
di a</w>
for ce</w>
Wil li
writ ing</w>
retur ned</w>
en ding</w>
e qu
en ds</w>
Uni versity</w>
f em
for d</w>
duc ed</w>
establi shed</w>
P ri
ampi on
ran ge</w>
re ached</w>
re land</w>
w ays</w>
g un
b it
Th ese</w>
Americ a</w>
a ff
com b
x im
att ack</w>
st re
ea stern</w>
st ing</w>
su m
mat ch</w>
in tro
g ade</w>
i de
g o</w>
ann oun
C ent
popu lation</w>
t al
construc tion</w>
coun try</w>
fa ther</w>
A c
l l
ear li
m as
b rea
L on
a in</w>
no ted</w>
n ever</w>
re view
I reland</w>
scri p
19 0
i se</w>
conc er
throu ghout</w>
Com m
hou se</w>
buil ding</w>
ag re
ac ross</w>
per son
ent al</w>
resul t</w>
om s</w>
h or
T o
chan ge</w>
nor th
loc ated</w>
se ven</w>
n ec
i m</w>
develop ment</w>
h ol
S ta
in e
dep end
thou ght</w>
G r
