e r
e l
e n
a n
i n
t i
S L
SL M
o d
o n
U s
Us er
User :</w>
SLM :</w>
c e
el l
l e
o r
i s</w>
c i
a l</w>
i g
an d</w>
r e
a t
g u
t h
a t</w>
en ce
r o
ti on
an gu
angu a
angua g
anguag e</w>
in g</w>
W h
Wh at</w>
t o</w>
o r</w>
f i
fi ci
a tion
t e
H o
Ho w</w>
c a
a s
y o
yo u</w>
t od
tod a
toda y
today ?</w>
o u
a r
a l
e l</w>
d e
f or
n e
r a
o n</w>
p ro
t ell
tell ig
ence ,</w>
o m
u c
q u
y s
in g
H ell
Hell o
Hello !</w>
ca n</w>
w i
l anguage</w>
m od
e y</w>
l i
li k
lik e</w>
le ar
S m
Sm al
Smal l</w>
L anguage</w>
M od
e f
ef fici
effici en
efficien t</w>
e r</w>
w or
f or</w>
f er
P y
Py th
ig h
s e
ti fici
tifici al</w>
in tellig
intellig ence,</w>
o p
m en
men t
u t
d o
e s</w>
el f
elf -
elf- at
elf-at t
elf-att en
elf-atten ti
elf-attenti on</w>
c om
com p
uc t</w>
o v
k e
s .</w>
s ys
sys te
s o
ing ,</w>
h ell
hell o</w>
as s
ass i
assi s
assis t</w>
wi t
wit h</w>
mod el
model ing</w>
h i</w>
h el
hel p</w>
h ey</w>
H ey</w>
th er
ther e
there !</w>
w ou
wou l
woul d</w>
lear n</w>
e x
ex p
exp l
expl or
explor e</w>
Mod el
Model ?</w>
Mod el</w>
( SLM
(SLM )</w>
a n</w>
de c
dec od
decod er
decoder -
decoder- on
decoder-on l
decoder-onl y</w>
t r
tr an
tran s
trans for
transfor m
transform er</w>
ne u
neu r
neur al</w>
ne t
net wor
networ k</w>
de s
des ig
desig ne
designe d</w>
ra p
rap i
rapi d</w>
t ra
tra in
train ing</w>
re s
res ou
resou r
resour ce
resource -
resource- efficient</w>
in fer
infer ence
inference .</w>
Pyth on
Python ?</w>
Pyth on</w>
h igh
high -
high- le
high-le v
high-lev el</w>
pro g
prog ra
progra m
program m
programm ing</w>
wi d
wid el
widel y</w>
u se
use d</w>
ar tificial</w>
w e
we b</w>
de v
dev el
devel op
develop ment
development ,</w>
d at
dat a</w>
s ci
sci ence,</w>
a ut
aut om
autom ation
automation .</w>
do es</w>
s elf-attention</w>
wor k
work ?</w>
S elf-attention</w>
comp u
compu te
compute s</w>
s ca
sca le
scale d</w>
do t
dot -
dot- p
dot-p r
dot-pr od
dot-prod uct</w>
m at
mat r
matr i
matri x</w>
op er
oper ation
operation s</w>
ov er</w>
qu er
quer i
queri e
querie s
queries ,</w>
ke ys
keys ,</w>
v al
val u
valu es</w>
mod el</w>
t o
to ke
toke n</w>
r el
rel ation
relation s
relations h
relationsh i
relationshi p
relationship s</w>
a c
ac ro
acro s
acros s</w>
se qu
sequ ence
sequence s.</w>
l a
la w
law ?</w>
L a
La w</w>
syste m</w>
o f</w>
r u
ru le
rule s</w>
c re
cre at
creat e
create d</w>
en for
enfor ce
enforce d</w>
th ro
thro u
throu g
throug h</w>
so ci
soci al</w>
g ov
gov er
gover n
govern ment
government al</w>
in s
ins ti
insti t
instit u
institu tion
institution s</w>
re gu
regu l
regul at
regulat e</w>
c on
con d
cond uct</w>
pro te
prote c
protec t</w>
r igh
righ t
right s.</w>
T el
Tel l</w>
m e</w>
a b
ab ou
abou t</w>
A I
AI .</w>
A r
Ar tificial</w>
I n
In tellig
Intellig en
Intelligen c
Intelligenc e</w>
re fer
refer s</w>
comp ut
comput ation
computation al</w>
syste m
system s</w>
th at</w>
p er
per for
perfor m</w>
t as
tas k
task s</w>
re qu
requ i
requi r
requir ing</w>
h u
hu m
hum an
human -
human- like</w>
s uc
suc h</w>
a s</w>
lear n
learn ing,</w>
re as
reas on
reason ing,</w>
pro b
prob le
proble m</w>
so l
sol v
solv ing
solving .</w>
