{
  "token2id": {
    "<pad>": 0,
    "<unk>": 1,
    "<s>": 2,
    "</s>": 3,
    "<mask>": 4,
    "!</w>": 5,
    "\"</w>": 6,
    "#</w>": 7,
    "$</w>": 8,
    "%</w>": 9,
    "&</w>": 10,
    "'": 11,
    "'</w>": 12,
    "(</w>": 13,
    ")</w>": 14,
    "*</w>": 15,
    "+</w>": 16,
    ",": 17,
    ",</w>": 18,
    "-": 19,
    "-</w>": 20,
    ".": 21,
    ".</w>": 22,
    "/</w>": 23,
    "0": 24,
    "0</w>": 25,
    "1": 26,
    "1</w>": 27,
    "2": 28,
    "2</w>": 29,
    "3": 30,
    "3</w>": 31,
    "4": 32,
    "4</w>": 33,
    "5": 34,
    "5</w>": 35,
    "6": 36,
    "6</w>": 37,
    "7": 38,
    "7</w>": 39,
    "8": 40,
    "8</w>": 41,
    "9": 42,
    "9</w>": 43,
    ":</w>": 44,
    ";</w>": 45,
    "=</w>": 46,
    "></w>": 47,
    "?</w>": 48,
    "@": 49,
    "@</w>": 50,
    "A": 51,
    "A</w>": 52,
    "B": 53,
    "B</w>": 54,
    "C": 55,
    "C</w>": 56,
    "D": 57,
    "D</w>": 58,
    "E": 59,
    "E</w>": 60,
    "F": 61,
    "F</w>": 62,
    "G": 63,
    "G</w>": 64,
    "H": 65,
    "H</w>": 66,
    "I": 67,
    "I</w>": 68,
    "J": 69,
    "J</w>": 70,
    "K": 71,
    "K</w>": 72,
    "L": 73,
    "L</w>": 74,
    "M": 75,
    "M</w>": 76,
    "N": 77,
    "N</w>": 78,
    "O": 79,
    "O</w>": 80,
    "P": 81,
    "P</w>": 82,
    "Q": 83,
    "Q</w>": 84,
    "R": 85,
    "R</w>": 86,
    "S": 87,
    "S</w>": 88,
    "T": 89,
    "T</w>": 90,
    "U": 91,
    "U</w>": 92,
    "V": 93,
    "V</w>": 94,
    "W": 95,
    "W</w>": 96,
    "X": 97,
    "X</w>": 98,
    "Y": 99,
    "Y</w>": 100,
    "Z": 101,
    "Z</w>": 102,
    "[</w>": 103,
    "\\</w>": 104,
    "]</w>": 105,
    "^</w>": 106,
    "`": 107,
    "a": 108,
    "a</w>": 109,
    "b": 110,
    "b</w>": 111,
    "c": 112,
    "c</w>": 113,
    "d": 114,
    "d</w>": 115,
    "e": 116,
    "e</w>": 117,
    "f": 118,
    "f</w>": 119,
    "g": 120,
    "g</w>": 121,
    "h": 122,
    "h</w>": 123,
    "i": 124,
    "i</w>": 125,
    "j": 126,
    "j</w>": 127,
    "k": 128,
    "k</w>": 129,
    "l": 130,
    "l</w>": 131,
    "m": 132,
    "m</w>": 133,
    "n": 134,
    "n</w>": 135,
    "o": 136,
    "o</w>": 137,
    "p": 138,
    "p</w>": 139,
    "q": 140,
    "q</w>": 141,
    "r": 142,
    "r</w>": 143,
    "s": 144,
    "s</w>": 145,
    "t": 146,
    "t</w>": 147,
    "u": 148,
    "u</w>": 149,
    "v": 150,
    "v</w>": 151,
    "w": 152,
    "w</w>": 153,
    "x": 154,
    "x</w>": 155,
    "y": 156,
    "y</w>": 157,
    "z": 158,
    "z</w>": 159,
    "|</w>": 160,
    "~</w>": 161,
    "¡</w>": 162,
    "£</w>": 163,
    "¥</w>": 164,
    "§</w>": 165,
    "°</w>": 166,
    "±</w>": 167,
    "²</w>": 168,
    "³</w>": 169,
    "µ": 170,
    "·</w>": 171,
    "½</w>": 172,
    "Á": 173,
    "Å": 174,
    "Æ": 175,
    "É": 176,
    "Í": 177,
    "Î": 178,
    "Ö": 179,
    "×</w>": 180,
    "Ø": 181,
    "Ø</w>": 182,
    "Ú": 183,
    "Ü": 184,
    "Þ": 185,
    "à</w>": 186,
    "á": 187,
    "á</w>": 188,
    "â": 189,
    "ã": 190,
    "ã</w>": 191,
    "ä": 192,
    "å": 193,
    "ç": 194,
    "è": 195,
    "é": 196,
    "é</w>": 197,
    "ê": 198,
    "ê</w>": 199,
    "ë": 200,
    "ë</w>": 201,
    "ì": 202,
    "í": 203,
    "í</w>": 204,
    "î": 205,
    "ñ": 206,
    "ò</w>": 207,
    "ó": 208,
    "ó</w>": 209,
    "ô": 210,
    "ô</w>": 211,
    "ö": 212,
    "ø": 213,
    "ø</w>": 214,
    "ú": 215,
    "ú</w>": 216,
    "û": 217,
    "ü": 218,
    "Ā": 219,
    "ā": 220,
    "ā</w>": 221,
    "ă": 222,
    "ć": 223,
    "ć</w>": 224,
    "č": 225,
    "Đ": 226,
    "đ": 227,
    "ė</w>": 228,
    "ī": 229,
    "ī</w>": 230,
    "Ł": 231,
    "ł": 232,
    "ł</w>": 233,
    "ń": 234,
    "Ō": 235,
    "ō": 236,
    "ō</w>": 237,
    "ś": 238,
    "ş</w>": 239,
    "š": 240,
    "š</w>": 241,
    "ū": 242,
    "ū</w>": 243,
    "ų</w>": 244,
    "Ż": 245,
    "ž": 246,
    "ơ": 247,
    "ư": 248,
    "ʻ": 249,
    "ʿ</w>": 250,
    "̃</w>": 251,
    "α</w>": 252,
    "β</w>": 253,
    "γ</w>": 254,
    "κ": 255,
    "μ": 256,
    "С": 257,
    "а": 258,
    "в": 259,
    "е": 260,
    "к": 261,
    "о": 262,
    "с": 263,
    "т": 264,
    "я</w>": 265,
    "ا": 266,
    "ح": 267,
    "ص": 268,
    "ل": 269,
    "ن</w>": 270,
    "ه</w>": 271,
    "्</w>": 272,
    "ก": 273,
    "ง</w>": 274,
    "ณ": 275,
    "ต": 276,
    "ม": 277,
    "ย": 278,
    "ร</w>": 279,
    "ล": 280,
    "ั": 281,
    "า": 282,
    "ิ": 283,
    "่</w>": 284,
    "์</w>": 285,
    "გ</w>": 286,
    "დ</w>": 287,
    "ვ</w>": 288,
    "ზ</w>": 289,
    "ი</w>": 290,
    "კ</w>": 291,
    "ო</w>": 292,
    "რ</w>": 293,
    "ს</w>": 294,
    "უ</w>": 295,
    "ც</w>": 296,
    "ძ</w>": 297,
    "წ</w>": 298,
    "ხ</w>": 299,
    "ჯ</w>": 300,
    "჻</w>": 301,
    "ḥ</w>": 302,
    "ṃ": 303,
    "ṅ": 304,
    "ṣ": 305,
    "ṭ": 306,
    "ṯ": 307,
    "ả": 308,
    "ấ": 309,
    "ầ": 310,
    "ắ": 311,
    "ễ": 312,
    "ệ": 313,
    "ị": 314,
    "ớ": 315,
    "ử": 316,
    "ỳ</w>": 317,
    "‑</w>": 318,
    "–</w>": 319,
    "—</w>": 320,
    "‘</w>": 321,
    "’</w>": 322,
    "“</w>": 323,
    "”</w>": 324,
    "„</w>": 325,
    "†</w>": 326,
    "…</w>": 327,
    "′</w>": 328,
    "″</w>": 329,
    "⁄</w>": 330,
    "₤</w>": 331,
    "€</w>": 332,
    "₹</w>": 333,
    "⅓</w>": 334,
    "⅔</w>": 335,
    "→</w>": 336,
    "−</w>": 337,
    "≤</w>": 338,
    "☉</w>": 339,
    "♭</w>": 340,
    "♯</w>": 341,
    "〈</w>": 342,
    "〉</w>": 343,
    "の": 344,
    "ァ": 345,
    "ア": 346,
    "キ": 347,
    "ス": 348,
    "ッ": 349,
    "ト": 350,
    "プ</w>": 351,
    "ュ": 352,
    "リ": 353,
    "ル": 354,
    "ヴ": 355,
    "・</w>": 356,
    "動": 357,
    "場": 358,
    "大": 359,
    "戦": 360,
    "攻": 361,
    "機": 362,
    "殻": 363,
    "火": 364,
    "礮</w>": 365,
    "空</w>": 366,
    "隊</w>": 367,
    "﻿</w>": 368,
    "～</w>": 369,
    "th": 370,
    "the</w>": 371,
    "in": 372,
    "an": 373,
    "ed</w>": 374,
    "er": 375,
    "re": 376,
    "ar": 377,
    "ti": 378,
    "of</w>": 379,
    "and</w>": 380,
    "on": 381,
    "er</w>": 382,
    "or": 383,
    "en": 384,
    "on</w>": 385,
    "in</w>": 386,
    "ing</w>": 387,
    "ou": 388,
    "to</w>": 389,
    "as</w>": 390,
    "it": 391,
    "al": 392,
    "st": 393,
    "es</w>": 394,
    "at": 395,
    "ro": 396,
    "hi": 397,
    "he</w>": 398,
    "at</w>": 399,
    "al</w>": 400,
    "ac": 401,
    "an</w>": 402,
    "si": 403,
    "el": 404,
    "ri": 405,
    "or</w>": 406,
    "st</w>": 407,
    "ec": 408,
    "om": 409,
    "ur": 410,
    "was</w>": 411,
    "am": 412,
    "li": 413,
    "en</w>": 414,
    "ly</w>": 415,
    "di": 416,
    "ea": 417,
    "tion</w>": 418,
    "The</w>": 419,
    "@-": 420,
    "@-@</w>": 421,
    "is</w>": 422,
    "il": 423,
    "ol": 424,
    "ic": 425,
    "ha": 426,
    "la": 427,
    "de": 428,
    "le</w>": 429,
    "that</w>": 430,
    "ra": 431,
    "'s</w>": 432,
    "ow": 433,
    "em": 434,
    "ith</w>": 435,
    "for</w>": 436,
    "un": 437,
    "ve</w>": 438,
    "by</w>": 439,
    "be": 440,
    "with</w>": 441,
    "ch</w>": 442,
    "se</w>": 443,
    "ent</w>": 444,
    "ir": 445,
    "con": 446,
    "ent": 447,
    "su": 448,
    "ere</w>": 449,
    "vi": 450,
    "ch": 451,
    "ag": 452,
    "the": 453,
    "th</w>": 454,
    "ce</w>": 455,
    "is": 456,
    "19": 457,
    "se": 458,
    "sp": 459,
    "pro": 460,
    "his</w>": 461,
    "ers</w>": 462,
    "oun": 463,
    "lo": 464,
    "ad": 465,
    "le": 466,
    "bu": 467,
    "po": 468,
    "ver": 469,
    "com": 470,
    "wh": 471,
    "rom</w>": 472,
    "for": 473,
    "ted</w>": 474,
    "from</w>": 475,
    "gh": 476,
    "tion": 477,
    "it</w>": 478,
    "as": 479,
    "op": 480,
    "ts</w>": 481,
    "no": 482,
    "ab": 483,
    "ex": 484,
    "20": 485,
    "ter</w>": 486,
    "es": 487,
    "whi": 488,
    "ation</w>": 489,
    "ap": 490,
    "sh": 491,
    "were</w>": 492,
    "mo": 493,
    "ay</w>": 494,
    "ds</w>": 495,
    "ther</w>": 496,
    "ru": 497,
    "ev": 498,
    "rec": 499,
    "im": 500,
    "ter": 501,
    "sc": 502,
    "ding</w>": 503,
    "oo": 504,
    "tw": 505,
    "ated</w>": 506,
    "sed</w>": 507,
    "ate</w>": 508,
    "ul": 509,
    "ded</w>": 510,
    "ame</w>": 511,
    "de</w>": 512,
    "ity</w>": 513,
    "lu": 514,
    "ear": 515,
    "pre": 516,
    "ir</w>": 517,
    "are</w>": 518,
    "du": 519,
    "qu": 520,
    "had</w>": 521,
    "ld</w>": 522,
    "per": 523,
    "ta": 524,
    "ma": 525,
    "ff": 526,
    "which</w>": 527,
    "In</w>": 528,
    "all</w>": 529,
    "ing": 530,
    "one</w>": 531,
    "gu": 532,
    "ne": 533,
    "be</w>": 534,
    "tr": 535,
    "par": 536,
    "ong</w>": 537,
    "so</w>": 538,
    "out</w>": 539,
    "fir": 540,
    "oc": 541,
    "ep": 542,
    "inc": 543,
    "gh</w>": 544,
    "ally</w>": 545,
    "ber</w>": 546,
    "man": 547,
    "tim": 548,
    "its</w>": 549,
    "tions</w>": 550,
    "lea": 551,
    "fi": 552,
    "ge</w>": 553,
    "ar</w>": 554,
    "ght</w>": 555,
    "por": 556,
    "um": 557,
    "au": 558,
    "ine</w>": 559,
    "ies</w>": 560,
    "sion</w>": 561,
    "St": 562,
    "ary</w>": 563,
    "son</w>": 564,
    "but</w>": 565,
    "der": 566,
    "est": 567,
    "200": 568,
    "ke</w>": 569,
    "their</w>": 570,
    "own</w>": 571,
    "ser": 572,
    "not</w>": 573,
    "tur": 574,
    "ver</w>": 575,
    "pl": 576,
    "et</w>": 577,
    "rou": 578,
    "Th": 579,
    "bo": 580,
    "first</w>": 581,
    "att": 582,
    "wor": 583,
    "Ch": 584,
    "et": 585,
    "est</w>": 586,
    "tic": 587,
    "pu": 588,
    "fter</w>": 589,
    "ved</w>": 590,
    "pla": 591,
    "ould</w>": 592,
    "her</w>": 593,
    "also</w>": 594,
    "ore</w>": 595,
    "der</w>": 596,
    "led</w>": 597,
    "ran": 598,
    "ss</w>": 599,
    "ound</w>": 600,
    "to": 601,
    "00</w>": 602,
    "sa": 603,
    "have</w>": 604,
    "ni": 605,
    "ard</w>": 606,
    "ca": 607,
    "ack</w>": 608,
    "gi": 609,
    "el</w>": 610,
    "age</w>": 611,
    "has</w>": 612,
    "our": 613,
    "comp": 614,
    "ali": 615,
    "fe": 616,
    "ome</w>": 617,
    "been</w>": 618,
    "sh</w>": 619,
    "two</w>": 620,
    "stor": 621,
    "ents</w>": 622,
    "@.": 623,
    "@.@</w>": 624,
    "cont": 625,
    "co": 626,
    "ence</w>": 627,
    "other</w>": 628,
    "shi": 629,
    "ment</w>": 630,
    "ks</w>": 631,
    "duc": 632,
    "bec": 633,
    "this</w>": 634,
    "ting</w>": 635,
    "te</w>": 636,
    "low": 637,
    "land</w>": 638,
    "ear</w>": 639,
    "ater</w>": 640,
    "uring</w>": 641,
    "who</w>": 642,
    "they</w>": 643,
    "go": 644,
    "wi": 645,
    "201": 646,
    "sec": 647,
    "ely</w>": 648,
    "mil": 649,
    "mu": 650,
    "fin": 651,
    "ous</w>": 652,
    "ig": 653,
    "spec": 654,
    "He</w>": 655,
    "rit": 656,
    "comm": 657,
    "king</w>": 658,
    "In": 659,
    "tive</w>": 660,
    "inclu": 661,
    "ons</w>": 662,
    "18": 663,
    "@,": 664,
    "@,@</w>": 665,
    "ric": 666,
    "form": 667,
    "our</w>": 668,
    "us</w>": 669,
    "time</w>": 670,
    "ei": 671,
    "ned</w>": 672,
    "after</w>": 673,
    "og": 674,
    "id</w>": 675,
    "ree</w>": 676,
    "ell</w>": 677,
    "ite</w>": 678,
    "pres": 679,
    "Al": 680,
    "ant</w>": 681,
    "ren": 682,
    "res</w>": 683,
    "sig": 684,
    "me": 685,
    "It</w>": 686,
    "tional</w>": 687,
    "str": 688,
    "tra": 689,
    "ember</w>": 690,
    "ade</w>": 691,
    "min": 692,
    "us": 693,
    "into</w>": 694,
    "ci": 695,
    "een</w>": 696,
    "more</w>": 697,
    "pa": 698,
    "ho": 699,
    "pri": 700,
    "pe": 701,
    "Mar": 702,
    "thou": 703,
    "ked</w>": 704,
    "would</w>": 705,
    "cent": 706,
    "ty</w>": 707,
    "play": 708,
    "able</w>": 709,
    "ever</w>": 710,
    "ure</w>": 711,
    "up</w>": 712,
    "lan": 713,
    "ace</w>": 714,
    "ited</w>": 715,
    "way</w>": 716,
    "Ro": 717,
    "als</w>": 718,
    "over</w>": 719,
    "char": 720,
    "id": 721,
    "aga": 722,
    "most</w>": 723,
    "tic</w>": 724,
    "na": 725,
    "ic</w>": 726,
    "ed": 727,
    "ft</w>": 728,
    "re</w>": 729,
    "ten": 730,
    "ern</w>": 731,
    "lar": 732,
    "ance</w>": 733,
    "ving</w>": 734,
    "ings</w>": 735,
    "les</w>": 736,
    "ined</w>": 737,
    "ay": 738,
    "ey</w>": 739,
    "An": 740,
    "inter": 741,
    "Au": 742,
    "ins</w>": 743,
    "off": 744,
    "sea": 745,
    "only</w>": 746,
    "ew</w>": 747,
    "ess</w>": 748,
    "man</w>": 749,
    "fil": 750,
    "mar": 751,
    "when</w>": 752,
    "ach": 753,
    "stru": 754,
    "ces</w>": 755,
    "ates</w>": 756,
    "bli": 757,
    "ning</w>": 758,
    "tu": 759,
    "do": 760,
    "during</w>": 761,
    "any</w>": 762,
    "dec": 763,
    "mer": 764,
    "she</w>": 765,
    "are": 766,
    "ond</w>": 767,
    "ties</w>": 768,
    "vel": 769,
    "ical</w>": 770,
    "than</w>": 771,
    "gen": 772,
    "ew": 773,
    "ses</w>": 774,
    "En": 775,
    "sel": 776,
    "fu": 777,
    "kn": 778,
    "col": 779,
    "cre": 780,
    "tween</w>": 781,
    "fa": 782,
    "him</w>": 783,
    "about</w>": 784,
    "app": 785,
    "199": 786,
    "ong": 787,
    "game</w>": 788,
    "ial</w>": 789,
    "loc": 790,
    "Bri": 791,
    "ach</w>": 792,
    "pp": 793,
    "writ": 794,
    "while</w>": 795,
    "Jo": 796,
    "sti": 797,
    "ps</w>": 798,
    "three</w>": 799,
    "old</w>": 800,
    "ves</w>": 801,
    "ee": 802,
    "ears</w>": 803,
    "ship</w>": 804,
    "ad</w>": 805,
    "end</w>": 806,
    "cc": 807,
    "between</w>": 808,
    "mon": 809,
    "gra": 810,
    "ations</w>": 811,
    "recor": 812,
    "pi": 813,
    "throu": 814,
    "though</w>": 815,
    "fol": 816,
    "scri": 817,
    "num": 818,
    "fore</w>": 819,
    "star": 820,
    "Ar": 821,
    "ari": 822,
    "Com": 823,
    "sy": 824,
    "used</w>": 825,
    "Un": 826,
    "struc": 827,
    "later</w>": 828,
    "ans</w>": 829,
    "season</w>": 830,
    "um</w>": 831,
    "te": 832,
    "of": 833,
    "hea": 834,
    "ice</w>": 835,
    "ook</w>": 836,
    "beg": 837,
    "nor": 838,
    "made</w>": 839,
    "coun": 840,
    "outh</w>": 841,
    "gre": 842,
    "ble</w>": 843,
    "where</w>": 844,
    "cla": 845,
    "produc": 846,
    "tor": 847,
    "new</w>": 848,
    "day</w>": 849,
    "Amer": 850,
    "Americ": 851,
    "relea": 852,
    "sing</w>": 853,
    "sur": 854,
    "ten</w>": 855,
    "emp": 856,
    "ber": 857,
    "ury</w>": 858,
    "Li": 859,
    "hel": 860,
    "ill</w>": 861,
    "ls</w>": 862,
    "000</w>": 863,
    "ement</w>": 864,
    "over": 865,
    "ames</w>": 866,
    "red</w>": 867,
    "them</w>": 868,
    "such</w>": 869,
    "ang": 870,
    "ating</w>": 871,
    "cal": 872,
    "ling</w>": 873,
    "ssi": 874,
    "No": 875,
    "year</w>": 876,
    "publi": 877,
    "some</w>": 878,
    "row": 879,
    "mi": 880,
    "with": 881,
    "buil": 882,
    "This</w>": 883,
    "dy</w>": 884,
    "Wh": 885,
    "ards</w>": 886,
    "can</w>": 887,
    "On</w>": 888,
    "ess": 889,
    "sub": 890,
    "Par": 891,
    "albu": 892,
    "tro": 893,
    "song</w>": 894,
    "fe</w>": 895,
    "before</w>": 896,
    "ture</w>": 897,
    "being</w>": 898,
    "side</w>": 899,
    "enti": 900,
    "years</w>": 901,
    "follow": 902,
    "Eng": 903,
    "cri": 904,
    "shed</w>": 905,
    "well</w>": 906,
    "owever</w>": 907,
    "ob": 908,
    "ph": 909,
    "gr": 910,
    "many</w>": 911,
    "am</w>": 912,
    "known</w>": 913,
    "od</w>": 914,
    "ected</w>": 915,
    "lar</w>": 916,
    "sm": 917,
    "dre": 918,
    "ood</w>": 919,
    "ann": 920,
    "vision</w>": 921,
    "tri": 922,
    "ste": 923,
    "bi": 924,
    "ect</w>": 925,
    "series</w>": 926,
    "part</w>": 927,
    "Nor": 928,
    "ven</w>": 929,
    "album</w>": 930,
    "iso": 931,
    "then</w>": 932,
    "poin": 933,
    "yp": 934,
    "early</w>": 935,
    "ga": 936,
    "story</w>": 937,
    "cap": 938,
    "sic</w>": 939,
    "Ju": 940,
    "line</w>": 941,
    "low</w>": 942,
    "through</w>": 943,
    "sts</w>": 944,
    "bel": 945,
    "Na": 946,
    "ort</w>": 947,
    "fic": 948,
    "mat": 949,
    "second</w>": 950,
    "consi": 951,
    "tly</w>": 952,
    "both</w>": 953,
    "veral</w>": 954,
    "ince</w>": 955,
    "ause</w>": 956,
    "eg": 957,
    "ese</w>": 958,
    "posi": 959,
    "ced</w>": 960,
    "inst</w>": 961,
    "ying</w>": 962,
    "aw": 963,
    "including</w>": 964,
    "ry</w>": 965,
    "ton</w>": 966,
    "New</w>": 967,
    "film</w>": 968,
    "ms</w>": 969,
    "against</w>": 970,
    "fac": 971,
    "number</w>": 972,
    "direc": 973,
    "became</w>": 974,
    "episo": 975,
    "stu": 976,
    "ster</w>": 977,
    "no</w>": 978,
    "and": 979,
    "des</w>": 980,
    "charac": 981,
    "eb": 982,
    "port</w>": 983,
    "ass": 984,
    "chi": 985,
    "ters</w>": 986,
    "my</w>": 987,
    "tran": 988,
    "Joh": 989,
    "198": 990,
    "mp": 991,
    "nam": 992,
    "there</w>": 993,
    "ani": 994,
    "descri": 995,
    "sup": 996,
    "fer": 997,
    "Mo": 998,
    "United</w>": 999,
    "orig": 1000,
    "olog": 1001,
    "sing": 1002,
    "ini": 1003,
    "devel": 1004,
    "peri": 1005,
    "10</w>": 1006,
    "ale</w>": 1007,
    "inv": 1008,
    "tho": 1009,
    "cu": 1010,
    "succ": 1011,
    "eng": 1012,
    "century</w>": 1013,
    "ily</w>": 1014,
    "very</w>": 1015,
    "lin": 1016,
    "Car": 1017,
    "dic": 1018,
    "conc": 1019,
    "tor</w>": 1020,
    "four</w>": 1021,
    "contin": 1022,
    "tish</w>": 1023,
    "ors</w>": 1024,
    "rema": 1025,
    "vo": 1026,
    "lion</w>": 1027,
    "sul": 1028,
    "tiv": 1029,
    "acc": 1030,
    "Con": 1031,
    "Bo": 1032,
    "work</w>": 1033,
    "several</w>": 1034,
    "emb": 1035,
    "ered</w>": 1036,
    "After</w>": 1037,
    "under</w>": 1038,
    "sch": 1039,
    "diff": 1040,
    "end": 1041,
    "began</w>": 1042,
    "arri": 1043,
    "tle</w>": 1044,
    "Di": 1045,
    "ays</w>": 1046,
    "tre": 1047,
    "sho": 1048,
    "cha": 1049,
    "197": 1050,
    "196": 1051,
    "dep": 1052,
    "inf": 1053,
    "eam</w>": 1054,
    "develop": 1055,
    "194": 1056,
    "ack": 1057,
    "ler</w>": 1058,
    "bor": 1059,
    "bas": 1060,
    "like</w>": 1061,
    "comple": 1062,
    "origin": 1063,
    "Ri": 1064,
    "oper": 1065,
    "0s</w>": 1066,
    "tain</w>": 1067,
    "called</w>": 1068,
    "bed</w>": 1069,
    "episode</w>": 1070,
    "ju": 1071,
    "found</w>": 1072,
    "Wor": 1073,
    "do</w>": 1074,
    "continu": 1075,
    "try</w>": 1076,
    "til</w>": 1077,
    "Ma": 1078,
    "recei": 1079,
    "As</w>": 1080,
    "ish</w>": 1081,
    "ople</w>": 1082,
    "ish": 1083,
    "high": 1084,
    "win": 1085,
    "air": 1086,
    "sol": 1087,
    "ll</w>": 1088,
    "self</w>": 1089,
    "uni": 1090,
    "city</w>": 1091,
    "sted</w>": 1092,
    "now</w>": 1093,
    "jo": 1094,
    "could</w>": 1095,
    "back</w>": 1096,
    "said</w>": 1097,
    "une</w>": 1098,
    "feat": 1099,
    "ory</w>": 1100,
    "American</w>": 1101,
    "zed</w>": 1102,
    "set</w>": 1103,
    "ns</w>": 1104,
    "these</w>": 1105,
    "may</w>": 1106,
    "gue</w>": 1107,
    "each</w>": 1108,
    "ath</w>": 1109,
    "Ger": 1110,
    "gener": 1111,
    "ining</w>": 1112,
    "ork</w>": 1113,
    "British</w>": 1114,
    "desig": 1115,
    "until</w>": 1116,
    "poli": 1117,
    "released</w>": 1118,
    "tical</w>": 1119,
    "serv": 1120,
    "Col": 1121,
    "fam": 1122,
    "same</w>": 1123,
    "ore": 1124,
    "did</w>": 1125,
    "pr": 1126,
    "urch</w>": 1127,
    "view": 1128,
    "off</w>": 1129,
    "clo": 1130,
    "De": 1131,
    "ful</w>": 1132,
    "oci": 1133,
    "don</w>": 1134,
    "ept": 1135,
    "20</w>": 1136,
    "gg": 1137,
    "il</w>": 1138,
    "thern</w>": 1139,
    "retur": 1140,
    "vers": 1141,
    "appear": 1142,
    "30</w>": 1143,
    "They</w>": 1144,
    "ou</w>": 1145,
    "exp": 1146,
    "dered</w>": 1147,
    "tel": 1148,
    "area</w>": 1149,
    "ley</w>": 1150,
    "dist": 1151,
    "ward</w>": 1152,
    "ane</w>": 1153,
    "rea": 1154,
    "reas": 1155,
    "ne</w>": 1156,
    "because</w>": 1157,
    "Oc": 1158,
    "ised</w>": 1159,
    "sta": 1160,
    "Hi": 1161,
    "formed</w>": 1162,
    "sive</w>": 1163,
    "million</w>": 1164,
    "Augu": 1165,
    "ey": 1166,
    "II</w>": 1167,
    "om</w>": 1168,
    "ron": 1169,
    "dra": 1170,
    "eld</w>": 1171,
    "ection</w>": 1172,
    "down</w>": 1173,
    "vel</w>": 1174,
    "Chri": 1175,
    "offic": 1176,
    "use</w>": 1177,
    "ant": 1178,
    "people</w>": 1179,
    "John</w>": 1180,
    "50</w>": 1181,
    "bro": 1182,
    "me</w>": 1183,
    "ball</w>": 1184,
    "bl": 1185,
    "life</w>": 1186,
    "disc": 1187,
    "along</w>": 1188,
    "up": 1189,
    "She</w>": 1190,
    "team</w>": 1191,
    "dis": 1192,
    "Wil": 1193,
    "eal": 1194,
    "trac": 1195,
    "dition</w>": 1196,
    "around</w>": 1197,
    "grou": 1198,
    "However</w>": 1199,
    "del": 1200,
    "Austr": 1201,
    "cam": 1202,
    "tes</w>": 1203,
    "popu": 1204,
    "lish</w>": 1205,
    "At</w>": 1206,
    "gover": 1207,
    "form</w>": 1208,
    "ower</w>": 1209,
    "Sept": 1210,
    "bri": 1211,
    "ird</w>": 1212,
    "ner</w>": 1213,
    "May</w>": 1214,
    "lation</w>": 1215,
    "September</w>": 1216,
    "plac": 1217,
    "August</w>": 1218,
    "Re": 1219,
    "following</w>": 1220,
    "long</w>": 1221,
    "ented</w>": 1222,
    "clu": 1223,
    "Can": 1224,
    "contro": 1225,
    "mis": 1226,
    "tics</w>": 1227,
    "Australi": 1228,
    "World</w>": 1229,
    "under": 1230,
    "sk": 1231,
    "five</w>": 1232,
    "sid": 1233,
    "Is": 1234,
    "resul": 1235,
    "music</w>": 1236,
    "ss": 1237,
    "km</w>": 1238,
    "national</w>": 1239,
    "ales</w>": 1240,
    "large</w>": 1241,
    "requ": 1242,
    "uro": 1243,
    "cur": 1244,
    "what</w>": 1245,
    "ree": 1246,
    "Gu": 1247,
    "wee": 1248,
    "nment</w>": 1249,
    "sou": 1250,
    "Jan": 1251,
    "spon": 1252,
    "dam": 1253,
    "loo": 1254,
    "ill": 1255,
    "15</w>": 1256,
    "stem</w>": 1257,
    "June</w>": 1258,
    "state</w>": 1259,
    "org": 1260,
    "ip": 1261,
    "Po": 1262,
    "ording</w>": 1263,
    "ef": 1264,
    "ral</w>": 1265,
    "12</w>": 1266,
    "ba": 1267,
    "maj": 1268,
    "hou": 1269,
    "195": 1270,
    "inten": 1271,
    "vari": 1272,
    "port": 1273,
    "name</w>": 1274,
    "def": 1275,
    "ext</w>": 1276,
    "since</w>": 1277,
    "States</w>": 1278,
    "play</w>": 1279,
    "ly": 1280,
    "species</w>": 1281,
    "Ca": 1282,
    "final</w>": 1283,
    "received</w>": 1284,
    "Pro": 1285,
    "arly</w>": 1286,
    "Fran": 1287,
    "ful": 1288,
    "took</w>": 1289,
    "ool</w>": 1290,
    "eff": 1291,
    "ately</w>": 1292,
    "Mon": 1293,
    "reg": 1294,
    "east</w>": 1295,
    "ened</w>": 1296,
    "out": 1297,
    "partic": 1298,
    "War</w>": 1299,
    "Du": 1300,
    "ast</w>": 1301,
    "adv": 1302,
    "tt": 1303,
    "provi": 1304,
    "sion": 1305,
    "sions</w>": 1306,
    "batt": 1307,
    "described</w>": 1308,
    "Mu": 1309,
    "appro": 1310,
    "fied</w>": 1311,
    "Octo": 1312,
    "October</w>": 1313,
    "ements</w>": 1314,
    "will</w>": 1315,
    "art</w>": 1316,
    "pas": 1317,
    "med</w>": 1318,
    "ead</w>": 1319,
    "played</w>": 1320,
    "place</w>": 1321,
    "moved</w>": 1322,
    "ross</w>": 1323,
    "high</w>": 1324,
    "ai": 1325,
    "larg": 1326,
    "Lo": 1327,
    "even</w>": 1328,
    "ord": 1329,
    "ole</w>": 1330,
    "Euro": 1331,
    "193": 1332,
    "pical</w>": 1333,
    "kes</w>": 1334,
    "hal": 1335,
    "South</w>": 1336,
    "fun": 1337,
    "ens</w>": 1338,
    "deo</w>": 1339,
    "ships</w>": 1340,
    "wro": 1341,
    "wrote</w>": 1342,
    "ground</w>": 1343,
    "lic": 1344,
    "Uni": 1345,
    "som": 1346,
    "ous": 1347,
    "ge": 1348,
    "July</w>": 1349,
    "ported</w>": 1350,
    "amp": 1351,
    "late</w>": 1352,
    "..": 1353,
    "named</w>": 1354,
    "position</w>": 1355,
    "ys</w>": 1356,
    "won</w>": 1357,
    "times</w>": 1358,
    "vic": 1359,
    "due</w>": 1360,
    "construc": 1361,
    "Sh": 1362,
    "sequ": 1363,
    "uary</w>": 1364,
    "reli": 1365,
    "Coun": 1366,
    "typ": 1367,
    "During</w>": 1368,
    "much</w>": 1369,
    "16": 1370,
    "ther": 1371,
    "ven": 1372,
    "cul": 1373,
    "Nov": 1374,
    "single</w>": 1375,
    "cer": 1376,
    "Apri": 1377,
    "April</w>": 1378,
    "rela": 1379,
    "Her": 1380,
    "ently</w>": 1381,
    "North</w>": 1382,
    "fri": 1383,
    "view</w>": 1384,
    "met": 1385,
    "17": 1386,
    "ology</w>": 1387,
    "Dec": 1388,
    "men</w>": 1389,
    "kil": 1390,
    "...</w>": 1391,
    "west</w>": 1392,
    "medi": 1393,
    "deci": 1394,
    "lit": 1395,
    "cra": 1396,
    "another</w>": 1397,
    "included</w>": 1398,
    "record</w>": 1399,
    "inst": 1400,
    "Da": 1401,
    "field</w>": 1402,
    "January</w>": 1403,
    "Su": 1404,
    "16</w>": 1405,
    "25</w>": 1406,
    "oman</w>": 1407,
    "respon": 1408,
    "within</w>": 1409,
    "ems</w>": 1410,
    "estab": 1411,
    "England</w>": 1412,
    "son": 1413,
    "14</w>": 1414,
    "sis</w>": 1415,
    "differ": 1416,
    "posed</w>": 1417,
    "York</w>": 1418,
    "anc": 1419,
    "built</w>": 1420,
    "ery</w>": 1421,
    "based</w>": 1422,
    "if</w>": 1423,
    "ages</w>": 1424,
    "although</w>": 1425,
    "left</w>": 1426,
    "attemp": 1427,
    "omin": 1428,
    "ia</w>": 1429,
    "family</w>": 1430,
    "aged</w>": 1431,
    "ongs</w>": 1432,
    "cau": 1433,
    "stri": 1434,
    "18</w>": 1435,
    "tal</w>": 1436,
    "prot": 1437,
    "her": 1438,
    "games</w>": 1439,
    "beli": 1440,
    "site</w>": 1441,
    "less</w>": 1442,
    "March</w>": 1443,
    "dge</w>": 1444,
    "ches</w>": 1445,
    "previ": 1446,
    "main</w>": 1447,
    "ign</w>": 1448,
    "November</w>": 1449,
    "sen": 1450,
    "eight</w>": 1451,
    "sour": 1452,
    "light</w>": 1453,
    "ze</w>": 1454,
    "ken</w>": 1455,
    "six</w>": 1456,
    "Pre": 1457,
    "Per": 1458,
    "yed</w>": 1459,
    "ility</w>": 1460,
    "run": 1461,
    "thing</w>": 1462,
    "ched</w>": 1463,
    "small</w>": 1464,
    "home</w>": 1465,
    "uc": 1466,
    "care": 1467,
    "water</w>": 1468,
    "system</w>": 1469,
    "11</w>": 1470,
    "ina</w>": 1471,
    "leg": 1472,
    "so": 1473,
    "ended</w>": 1474,
    "north</w>": 1475,
    "December</w>": 1476,
    "third</w>": 1477,
    "ony</w>": 1478,
    "sit": 1479,
    "them": 1480,
    "stan": 1481,
    "group</w>": 1482,
    "those</w>": 1483,
    "tow": 1484,
    "show</w>": 1485,
    "car": 1486,
    "speci": 1487,
    "vy</w>": 1488,
    "just</w>": 1489,
    "bur": 1490,
    "urric": 1491,
    "ored</w>": 1492,
    "last</w>": 1493,
    "ori": 1494,
    "dian</w>": 1495,
    "storm</w>": 1496,
    "auth": 1497,
    "City</w>": 1498,
    "ener": 1499,
    "original</w>": 1500,
    "book</w>": 1501,
    "near</w>": 1502,
    "government</w>": 1503,
    "regi": 1504,
    "Vi": 1505,
    "character</w>": 1506,
    "cor": 1507,
    "ject</w>": 1508,
    "south</w>": 1509,
    "lim": 1510,
    "ick</w>": 1511,
    "ker</w>": 1512,
    "Ho": 1513,
    "world</w>": 1514,
    "ampi": 1515,
    "ached</w>": 1516,
    "cou": 1517,
    "ats</w>": 1518,
    "thers</w>": 1519,
    "ature</w>": 1520,
    "best</w>": 1521,
    "His</w>": 1522,
    "pe</w>": 1523,
    "dom</w>": 1524,
    "war</w>": 1525,
    "Ad": 1526,
    "13</w>": 1527,
    "ati": 1528,
    "ta</w>": 1529,
    "When</w>": 1530,
    "ke": 1531,
    "versity</w>": 1532,
    "German</w>": 1533,
    "itary</w>": 1534,
    "ths</w>": 1535,
    "Ge": 1536,
    "ital</w>": 1537,
    "2009</w>": 1538,
    "ments</w>": 1539,
    "video</w>": 1540,
    "ue</w>": 1541,
    "ines</w>": 1542,
    "2008</w>": 1543,
    "2010</w>": 1544,
    "ech": 1545,
    "sure</w>": 1546,
    "plan": 1547,
    "some": 1548,
    "ects</w>": 1549,
    "National</w>": 1550,
    "make</w>": 1551,
    "yl": 1552,
    "forman": 1553,
    "head</w>": 1554,
    "Bu": 1555,
    "ough</w>": 1556,
    "divi": 1557,
    "issu": 1558,
    "Fe": 1559,
    "val</w>": 1560,
    "Ra": 1561,
    "death</w>": 1562,
    "ged</w>": 1563,
    "establi": 1564,
    "allow": 1565,
    "There</w>": 1566,
    "17</w>": 1567,
    "dio</w>": 1568,
    "ences</w>": 1569,
    "track</w>": 1570,
    "arti": 1571,
    "player</w>": 1572,
    "chan": 1573,
    "'t</w>": 1574,
    "Mc": 1575,
    "possi": 1576,
    "fur": 1577,
    "ety</w>": 1578,
    "enn": 1579,
    "ribu": 1580,
    "role</w>": 1581,
    "still</w>": 1582,
    "US</w>": 1583,
    "int</w>": 1584,
    "vil": 1585,
    "ening</w>": 1586,
    "ired</w>": 1587,
    "Char": 1588,
    "River</w>": 1589,
    "cour": 1590,
    "stern</w>": 1591,
    "served</w>": 1592,
    "stitu": 1593,
    "major</w>": 1594,
    "read": 1595,
    "history</w>": 1596,
    "Bar": 1597,
    "own": 1598,
    "For": 1599,
    "often</w>": 1600,
    "urricane</w>": 1601,
    "success": 1602,
    "wea": 1603,
    "version</w>": 1604,
    "top</w>": 1605,
    "100</w>": 1606,
    "rown</w>": 1607,
    "ring</w>": 1608,
    "cal</w>": 1609,
    "continued</w>": 1610,
    "val": 1611,
    "19</w>": 1612,
    "By</w>": 1613,
    "ound": 1614,
    "iled</w>": 1615,
    "company</w>": 1616,
    "ind</w>": 1617,
    "simil": 1618,
    "next</w>": 1619,
    "considered</w>": 1620,
    "mer</w>": 1621,
    "den</w>": 1622,
    "rac": 1623,
    "ham</w>": 1624,
    "2007</w>": 1625,
    "act</w>": 1626,
    "pur": 1627,
    "ously</w>": 1628,
    "sugg": 1629,
    "ram": 1630,
    "recorded</w>": 1631,
    "ock</w>": 1632,
    "yle</w>": 1633,
    "published</w>": 1634,
    "Fren": 1635,
    "per</w>": 1636,
    "chang": 1637,
    "Lea": 1638,
    "chil": 1639,
    "career</w>": 1640,
    "One</w>": 1641,
    "ual</w>": 1642,
    "band</w>": 1643,
    "again</w>": 1644,
    "sear": 1645,
    "held</w>": 1646,
    "performan": 1647,
    "phi": 1648,
    "initi": 1649,
    "town</w>": 1650,
    "period</w>": 1651,
    "came</w>": 1652,
    "Se": 1653,
    "oot": 1654,
    "Be": 1655,
    "trans": 1656,
    "take</w>": 1657,
    "dies</w>": 1658,
    "Batt": 1659,
    "show": 1660,
    "quar": 1661,
    "ili": 1662,
    "bir": 1663,
    "increas": 1664,
    "English</w>": 1665,
    "Man": 1666,
    "all": 1667,
    "va": 1668,
    "half</w>": 1669,
    "you</w>": 1670,
    "without</w>": 1671,
    "public</w>": 1672,
    "songs</w>": 1673,
    "Le": 1674,
    "French</w>": 1675,
    "written</w>": 1676,
    "ality</w>": 1677,
    "local</w>": 1678,
    "signed</w>": 1679,
    "S.</w>": 1680,
    "spite</w>": 1681,
    "ef</w>": 1682,
    "21</w>": 1683,
    "Sp": 1684,
    "days</w>": 1685,
    "ist": 1686,
    "eved</w>": 1687,
    "em</w>": 1688,
    "body</w>": 1689,
    "Acc": 1690,
    "tively</w>": 1691,
    "sses</w>": 1692,
    "fel": 1693,
    "disp": 1694,
    "refer": 1695,
    "ff</w>": 1696,
    "repres": 1697,
    "ath": 1698,
    "power</w>": 1699,
    "State</w>": 1700,
    "ept</w>": 1701,
    "Rec": 1702,
    "former</w>": 1703,
    "memb": 1704,
    "dren</w>": 1705,
    "support</w>": 1706,
    "Gre": 1707,
    "fl": 1708,
    "At": 1709,
    "ghout</w>": 1710,
    "Bra": 1711,
    "ghts</w>": 1712,
    "can": 1713,
    "2011</w>": 1714,
    "release</w>": 1715,
    "point</w>": 1716,
    "bar": 1717,
    "few</w>": 1718,
    "club</w>": 1719,
    "placed</w>": 1720,
    "ams</w>": 1721,
    "bs</w>": 1722,
    "tropical</w>": 1723,
    "become</w>": 1724,
    "scen": 1725,
    "ped</w>": 1726,
    "Division</w>": 1727,
    "ures</w>": 1728,
    "white</w>": 1729,
    "2006</w>": 1730,
    "ult</w>": 1731,
    "Cor": 1732,
    "Although</w>": 1733,
    "ested</w>": 1734,
    "using</w>": 1735,
    "however</w>": 1736,
    "import": 1737,
    "Inter": 1738,
    "ire</w>": 1739,
    "war": 1740,
    "died</w>": 1741,
    "Mic": 1742,
    "fic</w>": 1743,
    "further</w>": 1744,
    "dro": 1745,
    "23</w>": 1746,
    "Sa": 1747,
    "estern</w>": 1748,
    "According</w>": 1749,
    "different</w>": 1750,
    "ished</w>": 1751,
    "title</w>": 1752,
    "road</w>": 1753,
    "har": 1754,
    "ants</w>": 1755,
    "ration</w>": 1756,
    "military</w>": 1757,
    "ebru": 1758,
    "28</w>": 1759,
    "ges</w>": 1760,
    "production</w>": 1761,
    "yc": 1762,
    "win</w>": 1763,
    "Ser": 1764,
    "ol</w>": 1765,
    "dest": 1766,
    "action</w>": 1767,
    "League</w>": 1768,
    "run</w>": 1769,
    "yal</w>": 1770,
    "signi": 1771,
    "claim": 1772,
    "right</w>": 1773,
    "ian</w>": 1774,
    "new": 1775,
    "proc": 1776,
    "dri": 1777,
    "ston</w>": 1778,
    "Febru": 1779,
    "February</w>": 1780,
    "mor": 1781,
    "histor": 1782,
    "Gener": 1783,
    "Af": 1784,
    "exc": 1785,
    "24</w>": 1786,
    "ld": 1787,
    "how</w>": 1788,
    "ve": 1789,
    "row</w>": 1790,
    "Whi": 1791,
    "get</w>": 1792,
    "gave</w>": 1793,
    "produced</w>": 1794,
    "For</w>": 1795,
    "Tw": 1796,
    "Mis": 1797,
    "church</w>": 1798,
    "wat": 1799,
    "Dyl": 1800,
    "Dylan</w>": 1801,
    "among</w>": 1802,
    "22</w>": 1803,
    "exten": 1804,
    "ually</w>": 1805,
    "Church</w>": 1806,
    "ured</w>": 1807,
    "40</w>": 1808,
    "order</w>": 1809,
    "2012</w>": 1810,
    "evision</w>": 1811,
    "ell": 1812,
    "cho": 1813,
    "defe": 1814,
    "members</w>": 1815,
    "bert</w>": 1816,
    "den": 1817,
    "lack</w>": 1818,
    "children</w>": 1819,
    "ours</w>": 1820,
    "Fin": 1821,
    "eption</w>": 1822,
    "forces</w>": 1823,
    "stated</w>": 1824,
    "Co": 1825,
    "we</w>": 1826,
    "seen</w>": 1827,
    "moder": 1828,
    "cy</w>": 1829,
    "pit": 1830,
    "Jap": 1831,
    "fore": 1832,
    "him": 1833,
    "similar</w>": 1834,
    "having</w>": 1835,
    "include</w>": 1836,
    "Geor": 1837,
    "oung</w>": 1838,
    "main": 1839,
    "ra</w>": 1840,
    "sent</w>": 1841,
    "hum": 1842,
    "tory</w>": 1843,
    "ests</w>": 1844,
    "Ric": 1845,
    "common</w>": 1846,
    "ang</w>": 1847,
    "face</w>": 1848,
    "signific": 1849,
    "hy": 1850,
    "invol": 1851,
    "pra": 1852,
    "ops</w>": 1853,
    "alion</w>": 1854,
    "lost</w>": 1855,
    "influ": 1856,
    "Tim": 1857,
    "ak": 1858,
    "sident</w>": 1859,
    "26</w>": 1860,
    "given</w>": 1861,
    "Comp": 1862,
    "Chi": 1863,
    "conta": 1864,
    "va</w>": 1865,
    "short</w>": 1866,
    "lat": 1867,
    "ket</w>": 1868,
    "school</w>": 1869,
    "star</w>": 1870,
    "els</w>": 1871,
    "manag": 1872,
    "making</w>": 1873,
    "sha": 1874,
    "fire</w>": 1875,
    "vol": 1876,
    "All</w>": 1877,
    "ditional</w>": 1878,
    "sw": 1879,
    "atter": 1880,
    "Ber": 1881,
    "fes": 1882,
    "ogra": 1883,
    "2013</w>": 1884,
    "tru": 1885,
    "Sim": 1886,
    "Ni": 1887,
    "developed</w>": 1888,
    "control</w>": 1889,
    "evi": 1890,
    "fron": 1891,
    "reported</w>": 1892,
    "away</w>": 1893,
    "lead</w>": 1894,
    "craft</w>": 1895,
    "que</w>": 1896,
    "ney</w>": 1897,
    "Ab": 1898,
    "Qu": 1899,
    "ders</w>": 1900,
    "pos": 1901,
    "event": 1902,
    "ism</w>": 1903,
    "Cha": 1904,
    "comman": 1905,
    "General</w>": 1906,
    "Pe": 1907,
    "coll": 1908,
    "cial</w>": 1909,
    "ones</w>": 1910,
    "tors</w>": 1911,
    "wards</w>": 1912,
    "total</w>": 1913,
    "While</w>": 1914,
    "went</w>": 1915,
    "Sco": 1916,
    "dia</w>": 1917,
    "force</w>": 1918,
    "Willi": 1919,
    "writing</w>": 1920,
    "returned</w>": 1921,
    "ending</w>": 1922,
    "equ": 1923,
    "ends</w>": 1924,
    "University</w>": 1925,
    "fem": 1926,
    "ford</w>": 1927,
    "duced</w>": 1928,
    "established</w>": 1929,
    "Pri": 1930,
    "ampion": 1931,
    "range</w>": 1932,
    "reached</w>": 1933,
    "reland</w>": 1934,
    "ways</w>": 1935,
    "gun": 1936,
    "bit": 1937,
    "These</w>": 1938,
    "America</w>": 1939,
    "aff": 1940,
    "comb": 1941,
    "xim": 1942,
    "attack</w>": 1943,
    "stre": 1944,
    "eastern</w>": 1945,
    "sting</w>": 1946,
    "sum": 1947,
    "match</w>": 1948,
    "intro": 1949,
    "gade</w>": 1950,
    "ide": 1951,
    "go</w>": 1952,
    "announ": 1953,
    "Cent": 1954,
    "population</w>": 1955,
    "tal": 1956,
    "construction</w>": 1957,
    "country</w>": 1958,
    "father</w>": 1959,
    "Ac": 1960,
    "ll": 1961,
    "earli": 1962,
    "mas": 1963,
    "brea": 1964,
    "Lon": 1965,
    "ain</w>": 1966,
    "noted</w>": 1967,
    "never</w>": 1968,
    "review": 1969,
    "Ireland</w>": 1970,
    "scrip": 1971,
    "190": 1972,
    "ise</w>": 1973,
    "concer": 1974,
    "throughout</w>": 1975,
    "Comm": 1976,
    "house</w>": 1977,
    "building</w>": 1978,
    "agre": 1979,
    "across</w>": 1980,
    "person": 1981,
    "ental</w>": 1982,
    "result</w>": 1983,
    "oms</w>": 1984,
    "hor": 1985,
    "To": 1986,
    "change</w>": 1987,
    "north": 1988,
    "located</w>": 1989,
    "seven</w>": 1990,
    "nec": 1991,
    "im</w>": 1992,
    "development</w>": 1993,
    "hol": 1994,
    "Sta": 1995,
    "ine": 1996,
    "depend": 1997,
    "thought</w>": 1998,
    "Gr": 1999
  },
  "frequencies": {
    "<pad>": 1,
    "<unk>": 1,
    "<s>": 1,
    "</s>": 1,
    "<mask>": 1,
    "!</w>": 1,
    "\"</w>": 1,
    "#</w>": 1,
    "$</w>": 1,
    "%</w>": 1,
    "&</w>": 1,
    "'": 1,
    "'</w>": 1,
    "(</w>": 1,
    ")</w>": 1,
    "*</w>": 1,
    "+</w>": 1,
    ",": 1,
    ",</w>": 1,
    "-": 1,
    "-</w>": 1,
    ".": 1,
    ".</w>": 1,
    "/</w>": 1,
    "0": 1,
    "0</w>": 1,
    "1": 1,
    "1</w>": 1,
    "2": 1,
    "2</w>": 1,
    "3": 1,
    "3</w>": 1,
    "4": 1,
    "4</w>": 1,
    "5": 1,
    "5</w>": 1,
    "6": 1,
    "6</w>": 1,
    "7": 1,
    "7</w>": 1,
    "8": 1,
    "8</w>": 1,
    "9": 1,
    "9</w>": 1,
    ":</w>": 1,
    ";</w>": 1,
    "=</w>": 1,
    "></w>": 1,
    "?</w>": 1,
    "@": 1,
    "@</w>": 1,
    "A": 1,
    "A</w>": 1,
    "B": 1,
    "B</w>": 1,
    "C": 1,
    "C</w>": 1,
    "D": 1,
    "D</w>": 1,
    "E": 1,
    "E</w>": 1,
    "F": 1,
    "F</w>": 1,
    "G": 1,
    "G</w>": 1,
    "H": 1,
    "H</w>": 1,
    "I": 1,
    "I</w>": 1,
    "J": 1,
    "J</w>": 1,
    "K": 1,
    "K</w>": 1,
    "L": 1,
    "L</w>": 1,
    "M": 1,
    "M</w>": 1,
    "N": 1,
    "N</w>": 1,
    "O": 1,
    "O</w>": 1,
    "P": 1,
    "P</w>": 1,
    "Q": 1,
    "Q</w>": 1,
    "R": 1,
    "R</w>": 1,
    "S": 1,
    "S</w>": 1,
    "T": 1,
    "T</w>": 1,
    "U": 1,
    "U</w>": 1,
    "V": 1,
    "V</w>": 1,
    "W": 1,
    "W</w>": 1,
    "X": 1,
    "X</w>": 1,
    "Y": 1,
    "Y</w>": 1,
    "Z": 1,
    "Z</w>": 1,
    "[</w>": 1,
    "\\</w>": 1,
    "]</w>": 1,
    "^</w>": 1,
    "`": 1,
    "a": 1,
    "a</w>": 1,
    "b": 1,
    "b</w>": 1,
    "c": 1,
    "c</w>": 1,
    "d": 1,
    "d</w>": 1,
    "e": 1,
    "e</w>": 1,
    "f": 1,
    "f</w>": 1,
    "g": 1,
    "g</w>": 1,
    "h": 1,
    "h</w>": 1,
    "i": 1,
    "i</w>": 1,
    "j": 1,
    "j</w>": 1,
    "k": 1,
    "k</w>": 1,
    "l": 1,
    "l</w>": 1,
    "m": 1,
    "m</w>": 1,
    "n": 1,
    "n</w>": 1,
    "o": 1,
    "o</w>": 1,
    "p": 1,
    "p</w>": 1,
    "q": 1,
    "q</w>": 1,
    "r": 1,
    "r</w>": 1,
    "s": 1,
    "s</w>": 1,
    "t": 1,
    "t</w>": 1,
    "u": 1,
    "u</w>": 1,
    "v": 1,
    "v</w>": 1,
    "w": 1,
    "w</w>": 1,
    "x": 1,
    "x</w>": 1,
    "y": 1,
    "y</w>": 1,
    "z": 1,
    "z</w>": 1,
    "|</w>": 1,
    "~</w>": 1,
    "¡</w>": 1,
    "£</w>": 1,
    "¥</w>": 1,
    "§</w>": 1,
    "°</w>": 1,
    "±</w>": 1,
    "²</w>": 1,
    "³</w>": 1,
    "µ": 1,
    "·</w>": 1,
    "½</w>": 1,
    "Á": 1,
    "Å": 1,
    "Æ": 1,
    "É": 1,
    "Í": 1,
    "Î": 1,
    "Ö": 1,
    "×</w>": 1,
    "Ø": 1,
    "Ø</w>": 1,
    "Ú": 1,
    "Ü": 1,
    "Þ": 1,
    "à</w>": 1,
    "á": 1,
    "á</w>": 1,
    "â": 1,
    "ã": 1,
    "ã</w>": 1,
    "ä": 1,
    "å": 1,
    "ç": 1,
    "è": 1,
    "é": 1,
    "é</w>": 1,
    "ê": 1,
    "ê</w>": 1,
    "ë": 1,
    "ë</w>": 1,
    "ì": 1,
    "í": 1,
    "í</w>": 1,
    "î": 1,
    "ñ": 1,
    "ò</w>": 1,
    "ó": 1,
    "ó</w>": 1,
    "ô": 1,
    "ô</w>": 1,
    "ö": 1,
    "ø": 1,
    "ø</w>": 1,
    "ú": 1,
    "ú</w>": 1,
    "û": 1,
    "ü": 1,
    "Ā": 1,
    "ā": 1,
    "ā</w>": 1,
    "ă": 1,
    "ć": 1,
    "ć</w>": 1,
    "č": 1,
    "Đ": 1,
    "đ": 1,
    "ė</w>": 1,
    "ī": 1,
    "ī</w>": 1,
    "Ł": 1,
    "ł": 1,
    "ł</w>": 1,
    "ń": 1,
    "Ō": 1,
    "ō": 1,
    "ō</w>": 1,
    "ś": 1,
    "ş</w>": 1,
    "š": 1,
    "š</w>": 1,
    "ū": 1,
    "ū</w>": 1,
    "ų</w>": 1,
    "Ż": 1,
    "ž": 1,
    "ơ": 1,
    "ư": 1,
    "ʻ": 1,
    "ʿ</w>": 1,
    "̃</w>": 1,
    "α</w>": 1,
    "β</w>": 1,
    "γ</w>": 1,
    "κ": 1,
    "μ": 1,
    "С": 1,
    "а": 1,
    "в": 1,
    "е": 1,
    "к": 1,
    "о": 1,
    "с": 1,
    "т": 1,
    "я</w>": 1,
    "ا": 1,
    "ح": 1,
    "ص": 1,
    "ل": 1,
    "ن</w>": 1,
    "ه</w>": 1,
    "्</w>": 1,
    "ก": 1,
    "ง</w>": 1,
    "ณ": 1,
    "ต": 1,
    "ม": 1,
    "ย": 1,
    "ร</w>": 1,
    "ล": 1,
    "ั": 1,
    "า": 1,
    "ิ": 1,
    "่</w>": 1,
    "์</w>": 1,
    "გ</w>": 1,
    "დ</w>": 1,
    "ვ</w>": 1,
    "ზ</w>": 1,
    "ი</w>": 1,
    "კ</w>": 1,
    "ო</w>": 1,
    "რ</w>": 1,
    "ს</w>": 1,
    "უ</w>": 1,
    "ც</w>": 1,
    "ძ</w>": 1,
    "წ</w>": 1,
    "ხ</w>": 1,
    "ჯ</w>": 1,
    "჻</w>": 1,
    "ḥ</w>": 1,
    "ṃ": 1,
    "ṅ": 1,
    "ṣ": 1,
    "ṭ": 1,
    "ṯ": 1,
    "ả": 1,
    "ấ": 1,
    "ầ": 1,
    "ắ": 1,
    "ễ": 1,
    "ệ": 1,
    "ị": 1,
    "ớ": 1,
    "ử": 1,
    "ỳ</w>": 1,
    "‑</w>": 1,
    "–</w>": 1,
    "—</w>": 1,
    "‘</w>": 1,
    "’</w>": 1,
    "“</w>": 1,
    "”</w>": 1,
    "„</w>": 1,
    "†</w>": 1,
    "…</w>": 1,
    "′</w>": 1,
    "″</w>": 1,
    "⁄</w>": 1,
    "₤</w>": 1,
    "€</w>": 1,
    "₹</w>": 1,
    "⅓</w>": 1,
    "⅔</w>": 1,
    "→</w>": 1,
    "−</w>": 1,
    "≤</w>": 1,
    "☉</w>": 1,
    "♭</w>": 1,
    "♯</w>": 1,
    "〈</w>": 1,
    "〉</w>": 1,
    "の": 1,
    "ァ": 1,
    "ア": 1,
    "キ": 1,
    "ス": 1,
    "ッ": 1,
    "ト": 1,
    "プ</w>": 1,
    "ュ": 1,
    "リ": 1,
    "ル": 1,
    "ヴ": 1,
    "・</w>": 1,
    "動": 1,
    "場": 1,
    "大": 1,
    "戦": 1,
    "攻": 1,
    "機": 1,
    "殻": 1,
    "火": 1,
    "礮</w>": 1,
    "空</w>": 1,
    "隊</w>": 1,
    "﻿</w>": 1,
    "～</w>": 1,
    "th": 172461,
    "the</w>": 113171,
    "in": 105318,
    "an": 101345,
    "ed</w>": 83846,
    "er": 77005,
    "re": 64166,
    "ar": 59422,
    "ti": 57206,
    "of</w>": 57000,
    "and</w>": 56391,
    "on": 54610,
    "er</w>": 53648,
    "or": 53638,
    "en": 52697,
    "on</w>": 51907,
    "in</w>": 47387,
    "ing</w>": 44720,
    "ou": 43199,
    "to</w>": 42201,
    "as</w>": 41018,
    "it": 40980,
    "al": 39598,
    "st": 38913,
    "es</w>": 37177,
    "at": 36661,
    "ro": 34301,
    "hi": 31320,
    "he</w>": 26570,
    "at</w>": 25984,
    "al</w>": 25802,
    "ac": 25712,
    "an</w>": 25058,
    "si": 24952,
    "el": 24077,
    "ri": 23848,
    "or</w>": 23642,
    "st</w>": 22942,
    "ec": 21811,
    "om": 21734,
    "ur": 21597,
    "was</w>": 20985,
    "am": 20363,
    "li": 20329,
    "en</w>": 19516,
    "ly</w>": 19419,
    "di": 18697,
    "ea": 18469,
    "tion</w>": 17802,
    "The</w>": 17602,
    "@-": 16905,
    "@-@</w>": 16905,
    "is</w>": 16652,
    "il": 16649,
    "ol": 15818,
    "ic": 15020,
    "ha": 14843,
    "la": 14788,
    "de": 14688,
    "le</w>": 14383,
    "that</w>": 14135,
    "ra": 14094,
    "'s</w>": 14002,
    "ow": 13606,
    "em": 13476,
    "ith</w>": 13465,
    "for</w>": 13305,
    "un": 13179,
    "ve</w>": 13146,
    "by</w>": 12906,
    "be": 12866,
    "with</w>": 12613,
    "ch</w>": 12548,
    "se</w>": 12534,
    "ent</w>": 12084,
    "ir": 11984,
    "con": 11933,
    "ent": 11899,
    "su": 11757,
    "ere</w>": 11318,
    "vi": 11270,
    "ch": 11099,
    "ag": 10915,
    "the": 10797,
    "th</w>": 10504,
    "ce</w>": 10495,
    "is": 10434,
    "19": 10428,
    "se": 10139,
    "sp": 10035,
    "pro": 9911,
    "his</w>": 9886,
    "ers</w>": 9855,
    "oun": 9841,
    "lo": 9731,
    "ad": 9696,
    "le": 9680,
    "bu": 9610,
    "po": 9497,
    "ver": 9456,
    "com": 9396,
    "wh": 9317,
    "rom</w>": 9283,
    "for": 9276,
    "ted</w>": 9016,
    "from</w>": 8941,
    "gh": 8893,
    "tion": 8596,
    "it</w>": 8513,
    "as": 8426,
    "op": 8239,
    "ts</w>": 8202,
    "no": 8013,
    "ab": 7888,
    "ex": 7784,
    "20": 7741,
    "ter</w>": 7552,
    "es": 7527,
    "whi": 7471,
    "ation</w>": 7411,
    "ap": 7392,
    "sh": 7364,
    "were</w>": 7330,
    "mo": 7327,
    "ay</w>": 7247,
    "ds</w>": 6912,
    "ther</w>": 6803,
    "ru": 6628,
    "ev": 6446,
    "rec": 6293,
    "im": 6261,
    "ter": 6252,
    "sc": 6208,
    "ding</w>": 6200,
    "oo": 6178,
    "tw": 6150,
    "ated</w>": 6141,
    "sed</w>": 6126,
    "ate</w>": 6111,
    "ul": 6067,
    "ded</w>": 6051,
    "ame</w>": 6022,
    "de</w>": 6008,
    "ity</w>": 6002,
    "lu": 5965,
    "ear": 5947,
    "pre": 5907,
    "ir</w>": 5864,
    "are</w>": 5832,
    "du": 5778,
    "qu": 5757,
    "had</w>": 5740,
    "ld</w>": 5738,
    "per": 5676,
    "ta": 5666,
    "ma": 5649,
    "ff": 5622,
    "which</w>": 5543,
    "In</w>": 5525,
    "all</w>": 5518,
    "ing": 5477,
    "one</w>": 5338,
    "gu": 5265,
    "ne": 5214,
    "be</w>": 5208,
    "tr": 5194,
    "par": 5173,
    "ong</w>": 5166,
    "so</w>": 4971,
    "out</w>": 4966,
    "fir": 4921,
    "oc": 4908,
    "ep": 4871,
    "inc": 4860,
    "gh</w>": 4859,
    "ally</w>": 4855,
    "ber</w>": 4844,
    "man": 4835,
    "tim": 4732,
    "its</w>": 4723,
    "tions</w>": 4706,
    "lea": 4614,
    "fi": 4582,
    "ge</w>": 4552,
    "ar</w>": 4545,
    "ght</w>": 4534,
    "por": 4499,
    "um": 4463,
    "au": 4404,
    "ine</w>": 4326,
    "ies</w>": 4297,
    "sion</w>": 4271,
    "St": 4271,
    "ary</w>": 4268,
    "son</w>": 4263,
    "but</w>": 4257,
    "der": 4225,
    "est": 4222,
    "200": 4174,
    "ke</w>": 4146,
    "their</w>": 4127,
    "own</w>": 4092,
    "ser": 4069,
    "not</w>": 4058,
    "tur": 4057,
    "ver</w>": 4056,
    "pl": 4055,
    "et</w>": 4040,
    "rou": 3996,
    "Th": 3989,
    "bo": 3980,
    "first</w>": 3978,
    "att": 3960,
    "wor": 3959,
    "Ch": 3947,
    "et": 3947,
    "est</w>": 3906,
    "tic": 3889,
    "pu": 3854,
    "fter</w>": 3820,
    "ved</w>": 3812,
    "pla": 3762,
    "ould</w>": 3762,
    "her</w>": 3753,
    "also</w>": 3746,
    "ore</w>": 3742,
    "der</w>": 3723,
    "led</w>": 3638,
    "ran": 3582,
    "ss</w>": 3540,
    "ound</w>": 3530,
    "to": 3493,
    "00</w>": 3483,
    "sa": 3460,
    "have</w>": 3457,
    "ni": 3452,
    "ard</w>": 3450,
    "ca": 3388,
    "ack</w>": 3381,
    "gi": 3364,
    "el</w>": 3353,
    "age</w>": 3335,
    "has</w>": 3329,
    "our": 3323,
    "comp": 3317,
    "ali": 3309,
    "fe": 3300,
    "ome</w>": 3282,
    "been</w>": 3257,
    "sh</w>": 3248,
    "two</w>": 3238,
    "stor": 3230,
    "ents</w>": 3219,
    "@.": 3192,
    "@.@</w>": 3192,
    "cont": 3168,
    "co": 3165,
    "ence</w>": 3162,
    "other</w>": 3151,
    "shi": 3147,
    "ment</w>": 3114,
    "ks</w>": 3110,
    "duc": 3105,
    "bec": 3082,
    "this</w>": 3079,
    "ting</w>": 3078,
    "te</w>": 3067,
    "low": 3065,
    "land</w>": 3057,
    "ear</w>": 3038,
    "ater</w>": 3036,
    "uring</w>": 2987,
    "who</w>": 2963,
    "they</w>": 2941,
    "go": 2936,
    "wi": 2932,
    "201": 2908,
    "sec": 2888,
    "ely</w>": 2867,
    "mil": 2840,
    "mu": 2837,
    "fin": 2837,
    "ous</w>": 2829,
    "ig": 2789,
    "spec": 2765,
    "He</w>": 2764,
    "rit": 2763,
    "comm": 2734,
    "king</w>": 2731,
    "In": 2729,
    "tive</w>": 2721,
    "inclu": 2716,
    "ons</w>": 2708,
    "18": 2703,
    "@,": 2699,
    "@,@</w>": 2699,
    "ric": 2687,
    "form": 2686,
    "our</w>": 2662,
    "us</w>": 2657,
    "time</w>": 2655,
    "ei": 2653,
    "ned</w>": 2645,
    "after</w>": 2640,
    "og": 2621,
    "id</w>": 2605,
    "ree</w>": 2600,
    "ell</w>": 2593,
    "ite</w>": 2582,
    "pres": 2577,
    "Al": 2574,
    "ant</w>": 2566,
    "ren": 2561,
    "res</w>": 2558,
    "sig": 2544,
    "me": 2528,
    "It</w>": 2522,
    "tional</w>": 2522,
    "str": 2513,
    "tra": 2502,
    "ember</w>": 2499,
    "ade</w>": 2493,
    "min": 2475,
    "us": 2469,
    "into</w>": 2450,
    "ci": 2447,
    "een</w>": 2425,
    "more</w>": 2423,
    "pa": 2416,
    "ho": 2393,
    "pri": 2388,
    "pe": 2380,
    "Mar": 2368,
    "thou": 2355,
    "ked</w>": 2330,
    "would</w>": 2320,
    "cent": 2320,
    "ty</w>": 2319,
    "play": 2317,
    "able</w>": 2307,
    "ever</w>": 2304,
    "ure</w>": 2299,
    "up</w>": 2298,
    "lan": 2294,
    "ace</w>": 2267,
    "ited</w>": 2261,
    "way</w>": 2236,
    "Ro": 2228,
    "als</w>": 2207,
    "over</w>": 2205,
    "char": 2205,
    "id": 2198,
    "aga": 2194,
    "most</w>": 2186,
    "tic</w>": 2177,
    "na": 2174,
    "ic</w>": 2164,
    "ed": 2156,
    "ft</w>": 2146,
    "re</w>": 2136,
    "ten": 2134,
    "ern</w>": 2128,
    "lar": 2121,
    "ance</w>": 2116,
    "ving</w>": 2114,
    "ings</w>": 2096,
    "les</w>": 2094,
    "ined</w>": 2092,
    "ay": 2085,
    "ey</w>": 2081,
    "An": 2077,
    "inter": 2073,
    "Au": 2073,
    "ins</w>": 2073,
    "off": 2070,
    "sea": 2070,
    "only</w>": 2067,
    "ew</w>": 2064,
    "ess</w>": 2061,
    "man</w>": 2061,
    "fil": 2054,
    "mar": 2046,
    "when</w>": 2036,
    "ach": 2036,
    "stru": 2028,
    "ces</w>": 2023,
    "ates</w>": 2021,
    "bli": 2016,
    "ning</w>": 2015,
    "tu": 2015,
    "do": 2010,
    "during</w>": 1997,
    "any</w>": 1996,
    "dec": 1984,
    "mer": 1984,
    "she</w>": 1984,
    "are": 1977,
    "ond</w>": 1962,
    "ties</w>": 1961,
    "vel": 1953,
    "ical</w>": 1938,
    "than</w>": 1931,
    "gen": 1915,
    "ew": 1915,
    "ses</w>": 1913,
    "En": 1896,
    "sel": 1892,
    "fu": 1888,
    "kn": 1877,
    "col": 1876,
    "cre": 1875,
    "tween</w>": 1871,
    "fa": 1865,
    "him</w>": 1862,
    "about</w>": 1858,
    "app": 1857,
    "199": 1855,
    "ong": 1852,
    "game</w>": 1849,
    "ial</w>": 1846,
    "loc": 1840,
    "Bri": 1838,
    "ach</w>": 1835,
    "pp": 1833,
    "writ": 1818,
    "while</w>": 1818,
    "Jo": 1811,
    "sti": 1809,
    "ps</w>": 1808,
    "three</w>": 1803,
    "old</w>": 1794,
    "ves</w>": 1789,
    "ee": 1788,
    "ears</w>": 1785,
    "ship</w>": 1784,
    "ad</w>": 1782,
    "end</w>": 1782,
    "cc": 1774,
    "between</w>": 1768,
    "mon": 1762,
    "gra": 1757,
    "ations</w>": 1754,
    "recor": 1752,
    "pi": 1744,
    "throu": 1737,
    "though</w>": 1735,
    "fol": 1733,
    "scri": 1724,
    "num": 1718,
    "fore</w>": 1718,
    "star": 1702,
    "Ar": 1697,
    "ari": 1696,
    "Com": 1692,
    "sy": 1690,
    "used</w>": 1688,
    "Un": 1688,
    "struc": 1687,
    "later</w>": 1682,
    "ans</w>": 1680,
    "season</w>": 1672,
    "um</w>": 1670,
    "te": 1669,
    "of": 1667,
    "hea": 1665,
    "ice</w>": 1662,
    "ook</w>": 1658,
    "beg": 1656,
    "nor": 1647,
    "made</w>": 1646,
    "coun": 1645,
    "outh</w>": 1642,
    "gre": 1633,
    "ble</w>": 1617,
    "where</w>": 1615,
    "cla": 1601,
    "produc": 1599,
    "tor": 1598,
    "new</w>": 1598,
    "day</w>": 1588,
    "Amer": 1588,
    "Americ": 1588,
    "relea": 1583,
    "sing</w>": 1581,
    "sur": 1563,
    "ten</w>": 1562,
    "emp": 1561,
    "ber": 1558,
    "ury</w>": 1558,
    "Li": 1557,
    "hel": 1553,
    "ill</w>": 1547,
    "ls</w>": 1547,
    "000</w>": 1546,
    "ement</w>": 1543,
    "over": 1541,
    "ames</w>": 1539,
    "red</w>": 1537,
    "them</w>": 1534,
    "such</w>": 1532,
    "ang": 1527,
    "ating</w>": 1526,
    "cal": 1526,
    "ling</w>": 1523,
    "ssi": 1520,
    "No": 1509,
    "year</w>": 1507,
    "publi": 1505,
    "some</w>": 1504,
    "row": 1501,
    "mi": 1499,
    "with": 1485,
    "buil": 1484,
    "This</w>": 1481,
    "dy</w>": 1476,
    "Wh": 1476,
    "ards</w>": 1475,
    "can</w>": 1463,
    "On</w>": 1462,
    "ess": 1461,
    "sub": 1460,
    "Par": 1457,
    "albu": 1455,
    "tro": 1452,
    "song</w>": 1444,
    "fe</w>": 1442,
    "before</w>": 1441,
    "ture</w>": 1432,
    "being</w>": 1424,
    "side</w>": 1413,
    "enti": 1413,
    "years</w>": 1410,
    "follow": 1404,
    "Eng": 1404,
    "cri": 1402,
    "shed</w>": 1400,
    "well</w>": 1400,
    "owever</w>": 1397,
    "ob": 1395,
    "ph": 1390,
    "gr": 1382,
    "many</w>": 1373,
    "am</w>": 1371,
    "known</w>": 1368,
    "od</w>": 1366,
    "ected</w>": 1361,
    "lar</w>": 1361,
    "sm": 1360,
    "dre": 1357,
    "ood</w>": 1353,
    "ann": 1353,
    "vision</w>": 1352,
    "tri": 1351,
    "ste": 1344,
    "bi": 1342,
    "ect</w>": 1340,
    "series</w>": 1336,
    "part</w>": 1333,
    "Nor": 1329,
    "ven</w>": 1328,
    "album</w>": 1328,
    "iso": 1325,
    "then</w>": 1324,
    "poin": 1323,
    "yp": 1323,
    "early</w>": 1322,
    "ga": 1321,
    "story</w>": 1319,
    "cap": 1319,
    "sic</w>": 1318,
    "Ju": 1318,
    "line</w>": 1316,
    "low</w>": 1314,
    "through</w>": 1313,
    "sts</w>": 1313,
    "bel": 1310,
    "Na": 1305,
    "ort</w>": 1304,
    "fic": 1301,
    "mat": 1300,
    "second</w>": 1300,
    "consi": 1293,
    "tly</w>": 1292,
    "both</w>": 1291,
    "veral</w>": 1287,
    "ince</w>": 1287,
    "ause</w>": 1285,
    "eg": 1281,
    "ese</w>": 1277,
    "posi": 1275,
    "ced</w>": 1274,
    "inst</w>": 1272,
    "ying</w>": 1271,
    "aw": 1270,
    "including</w>": 1270,
    "ry</w>": 1269,
    "ton</w>": 1268,
    "New</w>": 1266,
    "film</w>": 1264,
    "ms</w>": 1263,
    "against</w>": 1260,
    "fac": 1260,
    "number</w>": 1259,
    "direc": 1257,
    "became</w>": 1255,
    "episo": 1254,
    "stu": 1254,
    "ster</w>": 1251,
    "no</w>": 1250,
    "and": 1238,
    "des</w>": 1237,
    "charac": 1233,
    "eb": 1230,
    "port</w>": 1229,
    "ass": 1228,
    "chi": 1226,
    "ters</w>": 1225,
    "my</w>": 1223,
    "tran": 1220,
    "Joh": 1220,
    "198": 1217,
    "mp": 1208,
    "nam": 1205,
    "there</w>": 1205,
    "ani": 1204,
    "descri": 1204,
    "sup": 1200,
    "fer": 1197,
    "Mo": 1196,
    "United</w>": 1194,
    "orig": 1193,
    "olog": 1187,
    "sing": 1186,
    "ini": 1186,
    "devel": 1182,
    "peri": 1182,
    "10</w>": 1178,
    "ale</w>": 1176,
    "inv": 1176,
    "tho": 1175,
    "cu": 1169,
    "succ": 1163,
    "eng": 1162,
    "century</w>": 1159,
    "ily</w>": 1159,
    "very</w>": 1158,
    "lin": 1157,
    "Car": 1157,
    "dic": 1154,
    "conc": 1150,
    "tor</w>": 1141,
    "four</w>": 1140,
    "contin": 1139,
    "tish</w>": 1139,
    "ors</w>": 1138,
    "rema": 1138,
    "vo": 1131,
    "lion</w>": 1131,
    "sul": 1121,
    "tiv": 1120,
    "acc": 1118,
    "Con": 1117,
    "Bo": 1117,
    "work</w>": 1115,
    "several</w>": 1113,
    "emb": 1111,
    "ered</w>": 1111,
    "After</w>": 1109,
    "under</w>": 1109,
    "sch": 1107,
    "diff": 1105,
    "end": 1103,
    "began</w>": 1102,
    "arri": 1094,
    "tle</w>": 1094,
    "Di": 1093,
    "ays</w>": 1092,
    "tre": 1091,
    "sho": 1091,
    "cha": 1089,
    "197": 1087,
    "196": 1087,
    "dep": 1086,
    "inf": 1083,
    "eam</w>": 1082,
    "develop": 1081,
    "194": 1081,
    "ack": 1081,
    "ler</w>": 1077,
    "bor": 1074,
    "bas": 1073,
    "like</w>": 1072,
    "comple": 1072,
    "origin": 1071,
    "Ri": 1070,
    "oper": 1065,
    "0s</w>": 1063,
    "tain</w>": 1061,
    "called</w>": 1060,
    "bed</w>": 1058,
    "episode</w>": 1057,
    "ju": 1056,
    "found</w>": 1053,
    "Wor": 1053,
    "do</w>": 1052,
    "continu": 1048,
    "try</w>": 1046,
    "til</w>": 1044,
    "Ma": 1041,
    "recei": 1040,
    "As</w>": 1040,
    "ish</w>": 1039,
    "ople</w>": 1039,
    "ish": 1038,
    "high": 1037,
    "win": 1033,
    "air": 1033,
    "sol": 1032,
    "ll</w>": 1032,
    "self</w>": 1031,
    "uni": 1030,
    "city</w>": 1030,
    "sted</w>": 1029,
    "now</w>": 1029,
    "jo": 1028,
    "could</w>": 1028,
    "back</w>": 1028,
    "said</w>": 1027,
    "une</w>": 1025,
    "feat": 1022,
    "ory</w>": 1022,
    "American</w>": 1018,
    "zed</w>": 1015,
    "set</w>": 1015,
    "ns</w>": 1013,
    "these</w>": 1011,
    "may</w>": 1007,
    "gue</w>": 1001,
    "each</w>": 1000,
    "ath</w>": 999,
    "Ger": 999,
    "gener": 997,
    "ining</w>": 993,
    "ork</w>": 991,
    "British</w>": 989,
    "desig": 986,
    "until</w>": 986,
    "poli": 981,
    "released</w>": 980,
    "tical</w>": 979,
    "serv": 977,
    "Col": 973,
    "fam": 973,
    "same</w>": 972,
    "ore": 970,
    "did</w>": 970,
    "pr": 968,
    "urch</w>": 968,
    "view": 967,
    "off</w>": 966,
    "clo": 966,
    "De": 966,
    "ful</w>": 965,
    "oci": 965,
    "don</w>": 964,
    "ept": 960,
    "20</w>": 960,
    "gg": 959,
    "il</w>": 957,
    "thern</w>": 957,
    "retur": 956,
    "vers": 956,
    "appear": 954,
    "30</w>": 954,
    "They</w>": 953,
    "ou</w>": 953,
    "exp": 952,
    "dered</w>": 952,
    "tel": 951,
    "area</w>": 949,
    "ley</w>": 949,
    "dist": 948,
    "ward</w>": 948,
    "ane</w>": 946,
    "rea": 944,
    "reas": 943,
    "ne</w>": 940,
    "because</w>": 940,
    "Oc": 936,
    "ised</w>": 935,
    "sta": 934,
    "Hi": 934,
    "formed</w>": 934,
    "sive</w>": 933,
    "million</w>": 933,
    "Augu": 931,
    "ey": 931,
    "II</w>": 930,
    "om</w>": 930,
    "ron": 929,
    "dra": 926,
    "eld</w>": 924,
    "ection</w>": 923,
    "down</w>": 922,
    "vel</w>": 921,
    "Chri": 921,
    "offic": 919,
    "use</w>": 919,
    "ant": 914,
    "people</w>": 914,
    "John</w>": 912,
    "50</w>": 912,
    "bro": 910,
    "me</w>": 908,
    "ball</w>": 908,
    "bl": 907,
    "life</w>": 907,
    "disc": 907,
    "along</w>": 905,
    "up": 905,
    "She</w>": 903,
    "team</w>": 902,
    "dis": 898,
    "Wil": 896,
    "eal": 894,
    "trac": 894,
    "dition</w>": 892,
    "around</w>": 889,
    "grou": 887,
    "However</w>": 885,
    "del": 884,
    "Austr": 884,
    "cam": 882,
    "tes</w>": 878,
    "popu": 877,
    "lish</w>": 875,
    "At</w>": 874,
    "gover": 873,
    "form</w>": 872,
    "ower</w>": 872,
    "Sept": 872,
    "bri": 871,
    "ird</w>": 870,
    "ner</w>": 870,
    "May</w>": 870,
    "lation</w>": 869,
    "September</w>": 869,
    "plac": 867,
    "August</w>": 865,
    "Re": 863,
    "following</w>": 863,
    "long</w>": 863,
    "ented</w>": 858,
    "clu": 854,
    "Can": 852,
    "contro": 851,
    "mis": 850,
    "tics</w>": 849,
    "Australi": 849,
    "World</w>": 847,
    "under": 846,
    "sk": 846,
    "five</w>": 844,
    "sid": 842,
    "Is": 840,
    "resul": 840,
    "music</w>": 837,
    "ss": 837,
    "km</w>": 836,
    "national</w>": 836,
    "ales</w>": 833,
    "large</w>": 832,
    "requ": 831,
    "uro": 830,
    "cur": 829,
    "what</w>": 827,
    "ree": 827,
    "Gu": 826,
    "wee": 826,
    "nment</w>": 825,
    "sou": 823,
    "Jan": 822,
    "spon": 818,
    "dam": 817,
    "loo": 816,
    "ill": 816,
    "15</w>": 812,
    "stem</w>": 810,
    "June</w>": 810,
    "state</w>": 810,
    "org": 810,
    "ip": 809,
    "Po": 804,
    "ording</w>": 804,
    "ef": 803,
    "ral</w>": 802,
    "12</w>": 800,
    "ba": 800,
    "maj": 798,
    "hou": 794,
    "195": 794,
    "inten": 793,
    "vari": 793,
    "port": 793,
    "name</w>": 792,
    "def": 791,
    "ext</w>": 790,
    "since</w>": 790,
    "States</w>": 790,
    "play</w>": 788,
    "ly": 787,
    "species</w>": 787,
    "Ca": 786,
    "final</w>": 784,
    "received</w>": 783,
    "Pro": 781,
    "arly</w>": 780,
    "Fran": 779,
    "ful": 778,
    "took</w>": 778,
    "ool</w>": 776,
    "eff": 775,
    "ately</w>": 774,
    "Mon": 774,
    "reg": 773,
    "east</w>": 772,
    "ened</w>": 771,
    "out": 770,
    "partic": 767,
    "War</w>": 766,
    "Du": 766,
    "ast</w>": 766,
    "adv": 765,
    "tt": 764,
    "provi": 764,
    "sion": 764,
    "sions</w>": 763,
    "batt": 762,
    "described</w>": 761,
    "Mu": 760,
    "appro": 759,
    "fied</w>": 758,
    "Octo": 757,
    "October</w>": 757,
    "ements</w>": 755,
    "will</w>": 755,
    "art</w>": 755,
    "pas": 754,
    "med</w>": 753,
    "ead</w>": 753,
    "played</w>": 752,
    "place</w>": 751,
    "moved</w>": 751,
    "ross</w>": 751,
    "high</w>": 751,
    "ai": 749,
    "larg": 748,
    "Lo": 748,
    "even</w>": 745,
    "ord": 744,
    "ole</w>": 744,
    "Euro": 743,
    "193": 743,
    "pical</w>": 743,
    "kes</w>": 742,
    "hal": 742,
    "South</w>": 742,
    "fun": 742,
    "ens</w>": 741,
    "deo</w>": 740,
    "ships</w>": 738,
    "wro": 736,
    "wrote</w>": 736,
    "ground</w>": 736,
    "lic": 735,
    "Uni": 734,
    "som": 733,
    "ous": 733,
    "ge": 733,
    "July</w>": 733,
    "ported</w>": 732,
    "amp": 732,
    "late</w>": 731,
    "..": 730,
    "named</w>": 728,
    "position</w>": 727,
    "ys</w>": 727,
    "won</w>": 727,
    "times</w>": 726,
    "vic": 725,
    "due</w>": 725,
    "construc": 725,
    "Sh": 724,
    "sequ": 723,
    "uary</w>": 722,
    "reli": 722,
    "Coun": 722,
    "typ": 720,
    "During</w>": 717,
    "much</w>": 717,
    "16": 717,
    "ther": 716,
    "ven": 716,
    "cul": 715,
    "Nov": 711,
    "single</w>": 711,
    "cer": 711,
    "Apri": 711,
    "April</w>": 711,
    "rela": 711,
    "Her": 711,
    "ently</w>": 710,
    "North</w>": 710,
    "fri": 709,
    "view</w>": 708,
    "met": 708,
    "17": 708,
    "ology</w>": 706,
    "Dec": 706,
    "men</w>": 705,
    "kil": 704,
    "...</w>": 704,
    "west</w>": 704,
    "medi": 704,
    "deci": 702,
    "lit": 701,
    "cra": 700,
    "another</w>": 699,
    "included</w>": 697,
    "record</w>": 697,
    "inst": 695,
    "Da": 694,
    "field</w>": 693,
    "January</w>": 693,
    "Su": 693,
    "16</w>": 692,
    "25</w>": 691,
    "oman</w>": 690,
    "respon": 690,
    "within</w>": 689,
    "ems</w>": 689,
    "estab": 689,
    "England</w>": 689,
    "son": 688,
    "14</w>": 688,
    "sis</w>": 688,
    "differ": 686,
    "posed</w>": 685,
    "York</w>": 685,
    "anc": 684,
    "built</w>": 683,
    "ery</w>": 683,
    "based</w>": 682,
    "if</w>": 681,
    "ages</w>": 681,
    "although</w>": 680,
    "left</w>": 680,
    "attemp": 679,
    "omin": 679,
    "ia</w>": 679,
    "family</w>": 678,
    "aged</w>": 677,
    "ongs</w>": 677,
    "cau": 677,
    "stri": 675,
    "18</w>": 675,
    "tal</w>": 675,
    "prot": 673,
    "her": 673,
    "games</w>": 671,
    "beli": 671,
    "site</w>": 665,
    "less</w>": 664,
    "March</w>": 664,
    "dge</w>": 664,
    "ches</w>": 664,
    "previ": 663,
    "main</w>": 663,
    "ign</w>": 662,
    "November</w>": 661,
    "sen": 661,
    "eight</w>": 661,
    "sour": 661,
    "light</w>": 660,
    "ze</w>": 660,
    "ken</w>": 659,
    "six</w>": 658,
    "Pre": 658,
    "Per": 657,
    "yed</w>": 657,
    "ility</w>": 656,
    "run": 655,
    "thing</w>": 654,
    "ched</w>": 654,
    "small</w>": 654,
    "home</w>": 652,
    "uc": 652,
    "care": 652,
    "water</w>": 652,
    "system</w>": 651,
    "11</w>": 651,
    "ina</w>": 650,
    "leg": 649,
    "so": 649,
    "ended</w>": 649,
    "north</w>": 647,
    "December</w>": 647,
    "third</w>": 646,
    "ony</w>": 646,
    "sit": 645,
    "them": 644,
    "stan": 644,
    "group</w>": 644,
    "those</w>": 643,
    "tow": 643,
    "show</w>": 643,
    "car": 642,
    "speci": 641,
    "vy</w>": 640,
    "just</w>": 640,
    "bur": 640,
    "urric": 640,
    "ored</w>": 638,
    "last</w>": 637,
    "ori": 637,
    "dian</w>": 637,
    "storm</w>": 636,
    "auth": 635,
    "City</w>": 635,
    "ener": 634,
    "original</w>": 633,
    "book</w>": 633,
    "near</w>": 633,
    "government</w>": 632,
    "regi": 632,
    "Vi": 631,
    "character</w>": 631,
    "cor": 631,
    "ject</w>": 631,
    "south</w>": 631,
    "lim": 630,
    "ick</w>": 630,
    "ker</w>": 629,
    "Ho": 629,
    "world</w>": 628,
    "ampi": 628,
    "ached</w>": 627,
    "cou": 626,
    "ats</w>": 626,
    "thers</w>": 626,
    "ature</w>": 625,
    "best</w>": 624,
    "His</w>": 624,
    "pe</w>": 624,
    "dom</w>": 624,
    "war</w>": 622,
    "Ad": 622,
    "13</w>": 622,
    "ati": 621,
    "ta</w>": 621,
    "When</w>": 619,
    "ke": 619,
    "versity</w>": 619,
    "German</w>": 619,
    "itary</w>": 618,
    "ths</w>": 618,
    "Ge": 618,
    "ital</w>": 617,
    "2009</w>": 616,
    "ments</w>": 615,
    "video</w>": 614,
    "ue</w>": 614,
    "ines</w>": 612,
    "2008</w>": 612,
    "2010</w>": 611,
    "ech": 610,
    "sure</w>": 610,
    "plan": 609,
    "some": 607,
    "ects</w>": 607,
    "National</w>": 605,
    "make</w>": 604,
    "yl": 603,
    "forman": 603,
    "head</w>": 602,
    "Bu": 601,
    "ough</w>": 601,
    "divi": 600,
    "issu": 600,
    "Fe": 600,
    "val</w>": 599,
    "Ra": 598,
    "death</w>": 598,
    "ged</w>": 597,
    "establi": 597,
    "allow": 597,
    "There</w>": 596,
    "17</w>": 596,
    "dio</w>": 596,
    "ences</w>": 595,
    "track</w>": 595,
    "arti": 594,
    "player</w>": 593,
    "chan": 593,
    "'t</w>": 592,
    "Mc": 592,
    "possi": 591,
    "fur": 591,
    "ety</w>": 590,
    "enn": 590,
    "ribu": 589,
    "role</w>": 588,
    "still</w>": 588,
    "US</w>": 588,
    "int</w>": 587,
    "vil": 587,
    "ening</w>": 586,
    "ired</w>": 586,
    "Char": 585,
    "River</w>": 585,
    "cour": 585,
    "stern</w>": 585,
    "served</w>": 584,
    "stitu": 584,
    "major</w>": 583,
    "read": 583,
    "history</w>": 583,
    "Bar": 582,
    "own": 580,
    "For": 578,
    "often</w>": 578,
    "urricane</w>": 578,
    "success": 577,
    "wea": 576,
    "version</w>": 576,
    "top</w>": 575,
    "100</w>": 574,
    "rown</w>": 572,
    "ring</w>": 572,
    "cal</w>": 571,
    "continued</w>": 571,
    "val": 571,
    "19</w>": 571,
    "By</w>": 570,
    "ound": 570,
    "iled</w>": 570,
    "company</w>": 569,
    "ind</w>": 569,
    "simil": 568,
    "next</w>": 567,
    "considered</w>": 567,
    "mer</w>": 567,
    "den</w>": 567,
    "rac": 567,
    "ham</w>": 567,
    "2007</w>": 567,
    "act</w>": 566,
    "pur": 564,
    "ously</w>": 564,
    "sugg": 564,
    "ram": 563,
    "recorded</w>": 562,
    "ock</w>": 562,
    "yle</w>": 561,
    "published</w>": 561,
    "Fren": 561,
    "per</w>": 560,
    "chang": 560,
    "Lea": 560,
    "chil": 560,
    "career</w>": 560,
    "One</w>": 559,
    "ual</w>": 559,
    "band</w>": 558,
    "again</w>": 557,
    "sear": 557,
    "held</w>": 557,
    "performan": 557,
    "phi": 556,
    "initi": 556,
    "town</w>": 555,
    "period</w>": 554,
    "came</w>": 554,
    "Se": 554,
    "oot": 554,
    "Be": 553,
    "trans": 552,
    "take</w>": 552,
    "dies</w>": 550,
    "Batt": 549,
    "show": 549,
    "quar": 548,
    "ili": 547,
    "bir": 547,
    "increas": 547,
    "English</w>": 546,
    "Man": 545,
    "all": 544,
    "va": 543,
    "half</w>": 543,
    "you</w>": 543,
    "without</w>": 542,
    "public</w>": 541,
    "songs</w>": 541,
    "Le": 540,
    "French</w>": 539,
    "written</w>": 538,
    "ality</w>": 538,
    "local</w>": 537,
    "signed</w>": 536,
    "S.</w>": 536,
    "spite</w>": 535,
    "ef</w>": 535,
    "21</w>": 534,
    "Sp": 533,
    "days</w>": 533,
    "ist": 533,
    "eved</w>": 533,
    "em</w>": 532,
    "body</w>": 532,
    "Acc": 532,
    "tively</w>": 532,
    "sses</w>": 531,
    "fel": 530,
    "disp": 530,
    "refer": 529,
    "ff</w>": 528,
    "repres": 527,
    "ath": 526,
    "power</w>": 525,
    "State</w>": 525,
    "ept</w>": 524,
    "Rec": 524,
    "former</w>": 524,
    "memb": 523,
    "dren</w>": 523,
    "support</w>": 522,
    "Gre": 522,
    "fl": 522,
    "At": 522,
    "ghout</w>": 521,
    "Bra": 521,
    "ghts</w>": 520,
    "can": 520,
    "2011</w>": 519,
    "release</w>": 519,
    "point</w>": 519,
    "bar": 519,
    "few</w>": 519,
    "club</w>": 517,
    "placed</w>": 517,
    "ams</w>": 517,
    "bs</w>": 517,
    "tropical</w>": 517,
    "become</w>": 516,
    "scen": 516,
    "ped</w>": 516,
    "Division</w>": 516,
    "ures</w>": 515,
    "white</w>": 515,
    "2006</w>": 515,
    "ult</w>": 515,
    "Cor": 514,
    "Although</w>": 514,
    "ested</w>": 514,
    "using</w>": 513,
    "however</w>": 512,
    "import": 512,
    "Inter": 511,
    "ire</w>": 510,
    "war": 510,
    "died</w>": 510,
    "Mic": 510,
    "fic</w>": 509,
    "further</w>": 509,
    "dro": 508,
    "23</w>": 507,
    "Sa": 505,
    "estern</w>": 505,
    "According</w>": 505,
    "different</w>": 504,
    "ished</w>": 504,
    "title</w>": 504,
    "road</w>": 504,
    "har": 504,
    "ants</w>": 503,
    "ration</w>": 502,
    "military</w>": 501,
    "ebru": 500,
    "28</w>": 500,
    "ges</w>": 500,
    "production</w>": 499,
    "yc": 499,
    "win</w>": 499,
    "Ser": 499,
    "ol</w>": 498,
    "dest": 497,
    "action</w>": 497,
    "League</w>": 497,
    "run</w>": 497,
    "yal</w>": 497,
    "signi": 496,
    "claim": 496,
    "right</w>": 496,
    "ian</w>": 495,
    "new": 493,
    "proc": 493,
    "dri": 493,
    "ston</w>": 493,
    "Febru": 492,
    "February</w>": 492,
    "mor": 492,
    "histor": 492,
    "Gener": 491,
    "Af": 491,
    "exc": 490,
    "24</w>": 490,
    "ld": 490,
    "how</w>": 489,
    "ve": 489,
    "row</w>": 489,
    "Whi": 488,
    "get</w>": 488,
    "gave</w>": 488,
    "produced</w>": 487,
    "For</w>": 487,
    "Tw": 485,
    "Mis": 485,
    "church</w>": 485,
    "wat": 485,
    "Dyl": 485,
    "Dylan</w>": 485,
    "among</w>": 484,
    "22</w>": 483,
    "exten": 483,
    "ually</w>": 483,
    "Church</w>": 483,
    "ured</w>": 481,
    "40</w>": 481,
    "order</w>": 480,
    "2012</w>": 480,
    "evision</w>": 480,
    "ell": 480,
    "cho": 478,
    "defe": 477,
    "members</w>": 476,
    "bert</w>": 476,
    "den": 476,
    "lack</w>": 475,
    "children</w>": 475,
    "ours</w>": 475,
    "Fin": 475,
    "eption</w>": 474,
    "forces</w>": 473,
    "stated</w>": 471,
    "Co": 471,
    "we</w>": 471,
    "seen</w>": 470,
    "moder": 469,
    "cy</w>": 469,
    "pit": 468,
    "Jap": 467,
    "fore": 467,
    "him": 466,
    "similar</w>": 466,
    "having</w>": 465,
    "include</w>": 465,
    "Geor": 465,
    "oung</w>": 464,
    "main": 464,
    "ra</w>": 464,
    "sent</w>": 464,
    "hum": 464,
    "tory</w>": 463,
    "ests</w>": 463,
    "Ric": 463,
    "common</w>": 463,
    "ang</w>": 463,
    "face</w>": 462,
    "signific": 462,
    "hy": 462,
    "invol": 461,
    "pra": 460,
    "ops</w>": 460,
    "alion</w>": 460,
    "lost</w>": 460,
    "influ": 460,
    "Tim": 460,
    "ak": 459,
    "sident</w>": 459,
    "26</w>": 459,
    "given</w>": 459,
    "Comp": 459,
    "Chi": 457,
    "conta": 457,
    "va</w>": 457,
    "short</w>": 456,
    "lat": 455,
    "ket</w>": 455,
    "school</w>": 455,
    "star</w>": 455,
    "els</w>": 454,
    "manag": 454,
    "making</w>": 453,
    "sha": 453,
    "fire</w>": 453,
    "vol": 453,
    "All</w>": 453,
    "ditional</w>": 452,
    "sw": 452,
    "atter": 452,
    "Ber": 452,
    "fes": 452,
    "ogra": 452,
    "2013</w>": 452,
    "tru": 451,
    "Sim": 451,
    "Ni": 451,
    "developed</w>": 450,
    "control</w>": 450,
    "evi": 450,
    "fron": 450,
    "reported</w>": 450,
    "away</w>": 449,
    "lead</w>": 449,
    "craft</w>": 449,
    "que</w>": 448,
    "ney</w>": 448,
    "Ab": 448,
    "Qu": 448,
    "ders</w>": 448,
    "pos": 447,
    "event": 447,
    "ism</w>": 446,
    "Cha": 446,
    "comman": 445,
    "General</w>": 445,
    "Pe": 445,
    "coll": 445,
    "cial</w>": 445,
    "ones</w>": 445,
    "tors</w>": 445,
    "wards</w>": 445,
    "total</w>": 444,
    "While</w>": 443,
    "went</w>": 443,
    "Sco": 443,
    "dia</w>": 443,
    "force</w>": 442,
    "Willi": 442,
    "writing</w>": 442,
    "returned</w>": 441,
    "ending</w>": 441,
    "equ": 440,
    "ends</w>": 440,
    "University</w>": 440,
    "fem": 438,
    "ford</w>": 438,
    "duced</w>": 438,
    "established</w>": 437,
    "Pri": 437,
    "ampion": 436,
    "range</w>": 435,
    "reached</w>": 435,
    "reland</w>": 435,
    "ways</w>": 434,
    "gun": 434,
    "bit": 434,
    "These</w>": 434,
    "America</w>": 434,
    "aff": 433,
    "comb": 433,
    "xim": 433,
    "attack</w>": 433,
    "stre": 433,
    "eastern</w>": 433,
    "sting</w>": 432,
    "sum": 432,
    "match</w>": 432,
    "intro": 432,
    "gade</w>": 432,
    "ide": 431,
    "go</w>": 431,
    "announ": 431,
    "Cent": 431,
    "population</w>": 431,
    "tal": 431,
    "construction</w>": 430,
    "country</w>": 430,
    "father</w>": 430,
    "Ac": 429,
    "ll": 429,
    "earli": 429,
    "mas": 428,
    "brea": 428,
    "Lon": 428,
    "ain</w>": 428,
    "noted</w>": 427,
    "never</w>": 427,
    "review": 427,
    "Ireland</w>": 427,
    "scrip": 425,
    "190": 425,
    "ise</w>": 425,
    "concer": 425,
    "throughout</w>": 424,
    "Comm": 424,
    "house</w>": 424,
    "building</w>": 424,
    "agre": 424,
    "across</w>": 424,
    "person": 423,
    "ental</w>": 423,
    "result</w>": 423,
    "oms</w>": 423,
    "hor": 423,
    "To": 422,
    "change</w>": 422,
    "north": 422,
    "located</w>": 421,
    "seven</w>": 420,
    "nec": 420,
    "im</w>": 420,
    "development</w>": 419,
    "hol": 419,
    "Sta": 419,
    "ine": 418,
    "depend": 418,
    "thought</w>": 418,
    "Gr": 418
  },
  "special_tokens": [
    "<pad>",
    "<unk>",
    "<s>",
    "</s>",
    "<mask>"
  ]
}