{
  "token2id": {
    "<pad>": 0,
    "<unk>": 1,
    "<s>": 2,
    "</s>": 3,
    "<mask>": 4,
    "\n</w>": 5,
    "!</w>": 6,
    "(": 7,
    ")</w>": 8,
    ",</w>": 9,
    "-": 10,
    ".</w>": 11,
    ":</w>": 12,
    "?</w>": 13,
    "A": 14,
    "A</w>": 15,
    "H": 16,
    "I": 17,
    "I</w>": 18,
    "L": 19,
    "M": 20,
    "P": 21,
    "S": 22,
    "T": 23,
    "U": 24,
    "W": 25,
    "a": 26,
    "a</w>": 27,
    "b": 28,
    "b</w>": 29,
    "c": 30,
    "d": 31,
    "d</w>": 32,
    "e": 33,
    "e</w>": 34,
    "f": 35,
    "f</w>": 36,
    "g": 37,
    "g</w>": 38,
    "h": 39,
    "h</w>": 40,
    "i": 41,
    "i</w>": 42,
    "k": 43,
    "k</w>": 44,
    "l": 45,
    "l</w>": 46,
    "m": 47,
    "m</w>": 48,
    "n": 49,
    "n</w>": 50,
    "o": 51,
    "o</w>": 52,
    "p": 53,
    "p</w>": 54,
    "q": 55,
    "r": 56,
    "r</w>": 57,
    "s": 58,
    "s</w>": 59,
    "t": 60,
    "t</w>": 61,
    "u": 62,
    "u</w>": 63,
    "v": 64,
    "w": 65,
    "w</w>": 66,
    "x": 67,
    "x</w>": 68,
    "y": 69,
    "y</w>": 70,
    "er": 71,
    "el": 72,
    "en": 73,
    "an": 74,
    "in": 75,
    "ti": 76,
    "SL": 77,
    "SLM": 78,
    "od": 79,
    "on": 80,
    "Us": 81,
    "User": 82,
    "User:</w>": 83,
    "SLM:</w>": 84,
    "ce": 85,
    "ell": 86,
    "le": 87,
    "or": 88,
    "is</w>": 89,
    "ci": 90,
    "al</w>": 91,
    "ig": 92,
    "and</w>": 93,
    "re": 94,
    "at": 95,
    "gu": 96,
    "th": 97,
    "at</w>": 98,
    "ence": 99,
    "ro": 100,
    "tion": 101,
    "angu": 102,
    "angua": 103,
    "anguag": 104,
    "anguage</w>": 105,
    "ing</w>": 106,
    "Wh": 107,
    "What</w>": 108,
    "to</w>": 109,
    "or</w>": 110,
    "fi": 111,
    "fici": 112,
    "ation": 113,
    "te": 114,
    "Ho": 115,
    "How</w>": 116,
    "ca": 117,
    "as": 118,
    "yo": 119,
    "you</w>": 120,
    "tod": 121,
    "toda": 122,
    "today": 123,
    "today?</w>": 124,
    "ou": 125,
    "ar": 126,
    "al": 127,
    "el</w>": 128,
    "de": 129,
    "for": 130,
    "ne": 131,
    "ra": 132,
    "on</w>": 133,
    "pro": 134,
    "tell": 135,
    "tellig": 136,
    "ence,</w>": 137,
    "om": 138,
    "uc": 139,
    "qu": 140,
    "ys": 141,
    "ing": 142,
    "Hell": 143,
    "Hello": 144,
    "Hello!</w>": 145,
    "can</w>": 146,
    "wi": 147,
    "language</w>": 148,
    "mod": 149,
    "ey</w>": 150,
    "li": 151,
    "lik": 152,
    "like</w>": 153,
    "lear": 154,
    "Sm": 155,
    "Smal": 156,
    "Small</w>": 157,
    "Language</w>": 158,
    "Mod": 159,
    "ef": 160,
    "effici": 161,
    "efficien": 162,
    "efficient</w>": 163,
    "er</w>": 164,
    "wor": 165,
    "for</w>": 166,
    "fer": 167,
    "Py": 168,
    "Pyth": 169,
    "igh": 170,
    "se": 171,
    "tifici": 172,
    "tificial</w>": 173,
    "intellig": 174,
    "intelligence,</w>": 175,
    "op": 176,
    "men": 177,
    "ment": 178,
    "ut": 179,
    "do": 180,
    "es</w>": 181,
    "elf": 182,
    "elf-": 183,
    "elf-at": 184,
    "elf-att": 185,
    "elf-atten": 186,
    "elf-attenti": 187,
    "elf-attention</w>": 188,
    "com": 189,
    "comp": 190,
    "uct</w>": 191,
    "ov": 192,
    "ke": 193,
    "s.</w>": 194,
    "sys": 195,
    "syste": 196,
    "so": 197,
    "ing,</w>": 198,
    "hell": 199,
    "hello</w>": 200,
    "ass": 201,
    "assi": 202,
    "assis": 203,
    "assist</w>": 204,
    "wit": 205,
    "with</w>": 206,
    "model": 207,
    "modeling</w>": 208,
    "hi</w>": 209,
    "hel": 210,
    "help</w>": 211,
    "hey</w>": 212,
    "Hey</w>": 213,
    "ther": 214,
    "there": 215,
    "there!</w>": 216,
    "wou": 217,
    "woul": 218,
    "would</w>": 219,
    "learn</w>": 220,
    "ex": 221,
    "exp": 222,
    "expl": 223,
    "explor": 224,
    "explore</w>": 225,
    "Model": 226,
    "Model?</w>": 227,
    "Model</w>": 228,
    "(SLM": 229,
    "(SLM)</w>": 230,
    "an</w>": 231,
    "dec": 232,
    "decod": 233,
    "decoder": 234,
    "decoder-": 235,
    "decoder-on": 236,
    "decoder-onl": 237,
    "decoder-only</w>": 238,
    "tr": 239,
    "tran": 240,
    "trans": 241,
    "transfor": 242,
    "transform": 243,
    "transformer</w>": 244,
    "neu": 245,
    "neur": 246,
    "neural</w>": 247,
    "net": 248,
    "networ": 249,
    "network</w>": 250,
    "des": 251,
    "desig": 252,
    "designe": 253,
    "designed</w>": 254,
    "rap": 255,
    "rapi": 256,
    "rapid</w>": 257,
    "tra": 258,
    "train": 259,
    "training</w>": 260,
    "res": 261,
    "resou": 262,
    "resour": 263,
    "resource": 264,
    "resource-": 265,
    "resource-efficient</w>": 266,
    "infer": 267,
    "inference": 268,
    "inference.</w>": 269,
    "Python": 270,
    "Python?</w>": 271,
    "Python</w>": 272,
    "high": 273,
    "high-": 274,
    "high-le": 275,
    "high-lev": 276,
    "high-level</w>": 277,
    "prog": 278,
    "progra": 279,
    "program": 280,
    "programm": 281,
    "programming</w>": 282,
    "wid": 283,
    "widel": 284,
    "widely</w>": 285,
    "use": 286,
    "used</w>": 287,
    "artificial</w>": 288,
    "we": 289,
    "web</w>": 290,
    "dev": 291,
    "devel": 292,
    "develop": 293,
    "development": 294,
    "development,</w>": 295,
    "dat": 296,
    "data</w>": 297,
    "sci": 298,
    "science,</w>": 299,
    "aut": 300,
    "autom": 301,
    "automation": 302,
    "automation.</w>": 303,
    "does</w>": 304,
    "self-attention</w>": 305,
    "work": 306,
    "work?</w>": 307,
    "Self-attention</w>": 308,
    "compu": 309,
    "compute": 310,
    "computes</w>": 311,
    "sca": 312,
    "scale": 313,
    "scaled</w>": 314,
    "dot": 315,
    "dot-": 316,
    "dot-p": 317,
    "dot-pr": 318,
    "dot-prod": 319,
    "dot-product</w>": 320,
    "mat": 321,
    "matr": 322,
    "matri": 323,
    "matrix</w>": 324,
    "oper": 325,
    "operation": 326,
    "operations</w>": 327,
    "over</w>": 328,
    "quer": 329,
    "queri": 330,
    "querie": 331,
    "queries": 332,
    "queries,</w>": 333,
    "keys": 334,
    "keys,</w>": 335,
    "val": 336,
    "valu": 337,
    "values</w>": 338,
    "model</w>": 339,
    "to": 340,
    "toke": 341,
    "token</w>": 342,
    "rel": 343,
    "relation": 344,
    "relations": 345,
    "relationsh": 346,
    "relationshi": 347,
    "relationship": 348,
    "relationships</w>": 349,
    "ac": 350,
    "acro": 351,
    "acros": 352,
    "across</w>": 353,
    "sequ": 354,
    "sequence": 355,
    "sequences.</w>": 356,
    "la": 357,
    "law": 358,
    "law?</w>": 359,
    "La": 360,
    "Law</w>": 361,
    "system</w>": 362,
    "of</w>": 363,
    "ru": 364,
    "rule": 365,
    "rules</w>": 366,
    "cre": 367,
    "creat": 368,
    "create": 369,
    "created</w>": 370,
    "enfor": 371,
    "enforce": 372,
    "enforced</w>": 373,
    "thro": 374,
    "throu": 375,
    "throug": 376,
    "through</w>": 377,
    "soci": 378,
    "social</w>": 379,
    "gov": 380,
    "gover": 381,
    "govern": 382,
    "government": 383,
    "governmental</w>": 384,
    "ins": 385,
    "insti": 386,
    "instit": 387,
    "institu": 388,
    "institution": 389,
    "institutions</w>": 390,
    "regu": 391,
    "regul": 392,
    "regulat": 393,
    "regulate</w>": 394,
    "con": 395,
    "cond": 396,
    "conduct</w>": 397,
    "prote": 398,
    "protec": 399,
    "protect</w>": 400,
    "righ": 401,
    "right": 402,
    "rights.</w>": 403,
    "Tel": 404,
    "Tell</w>": 405,
    "me</w>": 406,
    "ab": 407,
    "abou": 408,
    "about</w>": 409,
    "AI": 410,
    "AI.</w>": 411,
    "Ar": 412,
    "Artificial</w>": 413,
    "In": 414,
    "Intellig": 415,
    "Intelligen": 416,
    "Intelligenc": 417,
    "Intelligence</w>": 418,
    "refer": 419,
    "refers</w>": 420,
    "comput": 421,
    "computation": 422,
    "computational</w>": 423,
    "system": 424,
    "systems</w>": 425,
    "that</w>": 426,
    "per": 427,
    "perfor": 428,
    "perform</w>": 429,
    "tas": 430,
    "task": 431,
    "tasks</w>": 432,
    "requ": 433,
    "requi": 434,
    "requir": 435,
    "requiring</w>": 436,
    "hu": 437,
    "hum": 438,
    "human": 439,
    "human-": 440,
    "human-like</w>": 441,
    "suc": 442,
    "such</w>": 443,
    "as</w>": 444,
    "learn": 445,
    "learning,</w>": 446,
    "reas": 447,
    "reason": 448,
    "reasoning,</w>": 449,
    "prob": 450,
    "proble": 451,
    "problem</w>": 452,
    "sol": 453,
    "solv": 454,
    "solving": 455,
    "solving.</w>": 456
  },
  "frequencies": {
    "<pad>": 1,
    "<unk>": 1,
    "<s>": 1,
    "</s>": 1,
    "<mask>": 1,
    "\n</w>": 1,
    "!</w>": 1,
    "(": 1,
    ")</w>": 1,
    ",</w>": 1,
    "-": 1,
    ".</w>": 1,
    ":</w>": 1,
    "?</w>": 1,
    "A": 1,
    "A</w>": 1,
    "H": 1,
    "I": 1,
    "I</w>": 1,
    "L": 1,
    "M": 1,
    "P": 1,
    "S": 1,
    "T": 1,
    "U": 1,
    "W": 1,
    "a": 1,
    "a</w>": 1,
    "b": 1,
    "b</w>": 1,
    "c": 1,
    "d": 1,
    "d</w>": 1,
    "e": 1,
    "e</w>": 1,
    "f": 1,
    "f</w>": 1,
    "g": 1,
    "g</w>": 1,
    "h": 1,
    "h</w>": 1,
    "i": 1,
    "i</w>": 1,
    "k": 1,
    "k</w>": 1,
    "l": 1,
    "l</w>": 1,
    "m": 1,
    "m</w>": 1,
    "n": 1,
    "n</w>": 1,
    "o": 1,
    "o</w>": 1,
    "p": 1,
    "p</w>": 1,
    "q": 1,
    "r": 1,
    "r</w>": 1,
    "s": 1,
    "s</w>": 1,
    "t": 1,
    "t</w>": 1,
    "u": 1,
    "u</w>": 1,
    "v": 1,
    "w": 1,
    "w</w>": 1,
    "x": 1,
    "x</w>": 1,
    "y": 1,
    "y</w>": 1,
    "er": 960,
    "el": 900,
    "en": 780,
    "an": 720,
    "in": 720,
    "ti": 600,
    "SL": 540,
    "SLM": 540,
    "od": 540,
    "on": 540,
    "Us": 480,
    "User": 480,
    "User:</w>": 480,
    "SLM:</w>": 480,
    "ce": 420,
    "ell": 360,
    "le": 360,
    "or": 360,
    "is</w>": 360,
    "ci": 360,
    "al</w>": 360,
    "ig": 360,
    "and</w>": 360,
    "re": 360,
    "at": 360,
    "gu": 300,
    "th": 300,
    "at</w>": 300,
    "ence": 300,
    "ro": 300,
    "tion": 300,
    "angu": 240,
    "angua": 240,
    "anguag": 240,
    "anguage</w>": 240,
    "ing</w>": 240,
    "Wh": 240,
    "What</w>": 240,
    "to</w>": 240,
    "or</w>": 240,
    "fi": 240,
    "fici": 240,
    "ation": 240,
    "te": 240,
    "Ho": 180,
    "How</w>": 180,
    "ca": 180,
    "as": 180,
    "yo": 180,
    "you</w>": 180,
    "tod": 180,
    "toda": 180,
    "today": 180,
    "today?</w>": 180,
    "ou": 180,
    "ar": 180,
    "al": 180,
    "el</w>": 180,
    "de": 180,
    "for": 180,
    "ne": 180,
    "ra": 180,
    "on</w>": 180,
    "pro": 180,
    "tell": 180,
    "tellig": 180,
    "ence,</w>": 180,
    "om": 180,
    "uc": 180,
    "qu": 180,
    "ys": 180,
    "ing": 180,
    "Hell": 120,
    "Hello": 120,
    "Hello!</w>": 120,
    "can</w>": 120,
    "wi": 120,
    "language</w>": 120,
    "mod": 120,
    "ey</w>": 120,
    "li": 120,
    "lik": 120,
    "like</w>": 120,
    "lear": 120,
    "Sm": 120,
    "Smal": 120,
    "Small</w>": 120,
    "Language</w>": 120,
    "Mod": 120,
    "ef": 120,
    "effici": 120,
    "efficien": 120,
    "efficient</w>": 120,
    "er</w>": 120,
    "wor": 120,
    "for</w>": 120,
    "fer": 120,
    "Py": 120,
    "Pyth": 120,
    "igh": 120,
    "se": 120,
    "tifici": 120,
    "tificial</w>": 120,
    "intellig": 120,
    "intelligence,</w>": 120,
    "op": 120,
    "men": 120,
    "ment": 120,
    "ut": 120,
    "do": 120,
    "es</w>": 120,
    "elf": 120,
    "elf-": 120,
    "elf-at": 120,
    "elf-att": 120,
    "elf-atten": 120,
    "elf-attenti": 120,
    "elf-attention</w>": 120,
    "com": 120,
    "comp": 120,
    "uct</w>": 120,
    "ov": 120,
    "ke": 120,
    "s.</w>": 120,
    "sys": 120,
    "syste": 120,
    "so": 120,
    "ing,</w>": 120,
    "hell": 60,
    "hello</w>": 60,
    "ass": 60,
    "assi": 60,
    "assis": 60,
    "assist</w>": 60,
    "wit": 60,
    "with</w>": 60,
    "model": 60,
    "modeling</w>": 60,
    "hi</w>": 60,
    "hel": 60,
    "help</w>": 60,
    "hey</w>": 60,
    "Hey</w>": 60,
    "ther": 60,
    "there": 60,
    "there!</w>": 60,
    "wou": 60,
    "woul": 60,
    "would</w>": 60,
    "learn</w>": 60,
    "ex": 60,
    "exp": 60,
    "expl": 60,
    "explor": 60,
    "explore</w>": 60,
    "Model": 60,
    "Model?</w>": 60,
    "Model</w>": 60,
    "(SLM": 60,
    "(SLM)</w>": 60,
    "an</w>": 60,
    "dec": 60,
    "decod": 60,
    "decoder": 60,
    "decoder-": 60,
    "decoder-on": 60,
    "decoder-onl": 60,
    "decoder-only</w>": 60,
    "tr": 60,
    "tran": 60,
    "trans": 60,
    "transfor": 60,
    "transform": 60,
    "transformer</w>": 60,
    "neu": 60,
    "neur": 60,
    "neural</w>": 60,
    "net": 60,
    "networ": 60,
    "network</w>": 60,
    "des": 60,
    "desig": 60,
    "designe": 60,
    "designed</w>": 60,
    "rap": 60,
    "rapi": 60,
    "rapid</w>": 60,
    "tra": 60,
    "train": 60,
    "training</w>": 60,
    "res": 60,
    "resou": 60,
    "resour": 60,
    "resource": 60,
    "resource-": 60,
    "resource-efficient</w>": 60,
    "infer": 60,
    "inference": 60,
    "inference.</w>": 60,
    "Python": 60,
    "Python?</w>": 60,
    "Python</w>": 60,
    "high": 60,
    "high-": 60,
    "high-le": 60,
    "high-lev": 60,
    "high-level</w>": 60,
    "prog": 60,
    "progra": 60,
    "program": 60,
    "programm": 60,
    "programming</w>": 60,
    "wid": 60,
    "widel": 60,
    "widely</w>": 60,
    "use": 60,
    "used</w>": 60,
    "artificial</w>": 60,
    "we": 60,
    "web</w>": 60,
    "dev": 60,
    "devel": 60,
    "develop": 60,
    "development": 60,
    "development,</w>": 60,
    "dat": 60,
    "data</w>": 60,
    "sci": 60,
    "science,</w>": 60,
    "aut": 60,
    "autom": 60,
    "automation": 60,
    "automation.</w>": 60,
    "does</w>": 60,
    "self-attention</w>": 60,
    "work": 60,
    "work?</w>": 60,
    "Self-attention</w>": 60,
    "compu": 60,
    "compute": 60,
    "computes</w>": 60,
    "sca": 60,
    "scale": 60,
    "scaled</w>": 60,
    "dot": 60,
    "dot-": 60,
    "dot-p": 60,
    "dot-pr": 60,
    "dot-prod": 60,
    "dot-product</w>": 60,
    "mat": 60,
    "matr": 60,
    "matri": 60,
    "matrix</w>": 60,
    "oper": 60,
    "operation": 60,
    "operations</w>": 60,
    "over</w>": 60,
    "quer": 60,
    "queri": 60,
    "querie": 60,
    "queries": 60,
    "queries,</w>": 60,
    "keys": 60,
    "keys,</w>": 60,
    "val": 60,
    "valu": 60,
    "values</w>": 60,
    "model</w>": 60,
    "to": 60,
    "toke": 60,
    "token</w>": 60,
    "rel": 60,
    "relation": 60,
    "relations": 60,
    "relationsh": 60,
    "relationshi": 60,
    "relationship": 60,
    "relationships</w>": 60,
    "ac": 60,
    "acro": 60,
    "acros": 60,
    "across</w>": 60,
    "sequ": 60,
    "sequence": 60,
    "sequences.</w>": 60,
    "la": 60,
    "law": 60,
    "law?</w>": 60,
    "La": 60,
    "Law</w>": 60,
    "system</w>": 60,
    "of</w>": 60,
    "ru": 60,
    "rule": 60,
    "rules</w>": 60,
    "cre": 60,
    "creat": 60,
    "create": 60,
    "created</w>": 60,
    "enfor": 60,
    "enforce": 60,
    "enforced</w>": 60,
    "thro": 60,
    "throu": 60,
    "throug": 60,
    "through</w>": 60,
    "soci": 60,
    "social</w>": 60,
    "gov": 60,
    "gover": 60,
    "govern": 60,
    "government": 60,
    "governmental</w>": 60,
    "ins": 60,
    "insti": 60,
    "instit": 60,
    "institu": 60,
    "institution": 60,
    "institutions</w>": 60,
    "regu": 60,
    "regul": 60,
    "regulat": 60,
    "regulate</w>": 60,
    "con": 60,
    "cond": 60,
    "conduct</w>": 60,
    "prote": 60,
    "protec": 60,
    "protect</w>": 60,
    "righ": 60,
    "right": 60,
    "rights.</w>": 60,
    "Tel": 60,
    "Tell</w>": 60,
    "me</w>": 60,
    "ab": 60,
    "abou": 60,
    "about</w>": 60,
    "AI": 60,
    "AI.</w>": 60,
    "Ar": 60,
    "Artificial</w>": 60,
    "In": 60,
    "Intellig": 60,
    "Intelligen": 60,
    "Intelligenc": 60,
    "Intelligence</w>": 60,
    "refer": 60,
    "refers</w>": 60,
    "comput": 60,
    "computation": 60,
    "computational</w>": 60,
    "system": 60,
    "systems</w>": 60,
    "that</w>": 60,
    "per": 60,
    "perfor": 60,
    "perform</w>": 60,
    "tas": 60,
    "task": 60,
    "tasks</w>": 60,
    "requ": 60,
    "requi": 60,
    "requir": 60,
    "requiring</w>": 60,
    "hu": 60,
    "hum": 60,
    "human": 60,
    "human-": 60,
    "human-like</w>": 60,
    "suc": 60,
    "such</w>": 60,
    "as</w>": 60,
    "learn": 60,
    "learning,</w>": 60,
    "reas": 60,
    "reason": 60,
    "reasoning,</w>": 60,
    "prob": 60,
    "proble": 60,
    "problem</w>": 60,
    "sol": 60,
    "solv": 60,
    "solving": 60,
    "solving.</w>": 60
  },
  "special_tokens": [
    "<pad>",
    "<unk>",
    "<s>",
    "</s>",
    "<mask>"
  ]
}