{
  "token2id": {
    "<pad>": 0,
    "<unk>": 1,
    "<s>": 2,
    "</s>": 3,
    "<mask>": 4,
    "\n</w>": 5,
    "!</w>": 6,
    "(": 7,
    ")</w>": 8,
    ",</w>": 9,
    "-": 10,
    ".</w>": 11,
    ":</w>": 12,
    "?</w>": 13,
    "A": 14,
    "A</w>": 15,
    "H": 16,
    "I": 17,
    "I</w>": 18,
    "L": 19,
    "M": 20,
    "P": 21,
    "S": 22,
    "T": 23,
    "U": 24,
    "W": 25,
    "a": 26,
    "a</w>": 27,
    "b": 28,
    "b</w>": 29,
    "c": 30,
    "d": 31,
    "d</w>": 32,
    "e": 33,
    "e</w>": 34,
    "f": 35,
    "f</w>": 36,
    "g": 37,
    "g</w>": 38,
    "h": 39,
    "h</w>": 40,
    "i": 41,
    "i</w>": 42,
    "k": 43,
    "k</w>": 44,
    "l": 45,
    "l</w>": 46,
    "m": 47,
    "m</w>": 48,
    "n": 49,
    "n</w>": 50,
    "o": 51,
    "o</w>": 52,
    "p": 53,
    "p</w>": 54,
    "q": 55,
    "r": 56,
    "r</w>": 57,
    "s": 58,
    "s</w>": 59,
    "t": 60,
    "t</w>": 61,
    "u": 62,
    "u</w>": 63,
    "v": 64,
    "w": 65,
    "w</w>": 66,
    "x": 67,
    "x</w>": 68,
    "y": 69,
    "y</w>": 70,
    "z": 71,
    "er": 72,
    "an": 73,
    "in": 74,
    "el": 75,
    "SL": 76,
    "SLM": 77,
    "at": 78,
    "en": 79,
    "Us": 80,
    "User": 81,
    "User:</w>": 82,
    "SLM:</w>": 83,
    "od": 84,
    "on": 85,
    "le": 86,
    "or": 87,
    "and</w>": 88,
    "yo": 89,
    "ro": 90,
    "al</w>": 91,
    "you</w>": 92,
    "gu": 93,
    "ion": 94,
    "is</w>": 95,
    "ce": 96,
    "angu": 97,
    "angua": 98,
    "anguag": 99,
    "anguage</w>": 100,
    "th": 101,
    "at</w>": 102,
    "ma": 103,
    "re": 104,
    "ation": 105,
    "ell": 106,
    "ing</w>": 107,
    "hat</w>": 108,
    "us": 109,
    "el</w>": 110,
    "Py": 111,
    "ing": 112,
    "ci": 113,
    "ig": 114,
    "ca": 115,
    "as": 116,
    "it": 117,
    "to</w>": 118,
    "or</w>": 119,
    "La": 120,
    "to": 121,
    "Sma": 122,
    "Smal": 123,
    "Small</w>": 124,
    "Language</w>": 125,
    "Mod": 126,
    "on</w>": 127,
    "for": 128,
    "ence": 129,
    "can</w>": 130,
    "What</w>": 131,
    "ar": 132,
    "Law": 133,
    "LawSLM": 134,
    "Model</w>": 135,
    "ui": 136,
    "co": 137,
    "com": 138,
    "comp": 139,
    "ch</w>": 140,
    "Pyth": 141,
    "ed</w>": 142,
    "ing,</w>": 143,
    "am": 144,
    "pro": 145,
    "fi": 146,
    "fici": 147,
    "ti": 148,
    "te": 149,
    "Ho": 150,
    "How</w>": 151,
    "wit": 152,
    "with</w>": 153,
    "tod": 154,
    "toda": 155,
    "today": 156,
    "today?</w>": 157,
    "ou": 158,
    "wh": 159,
    "who</w>": 160,
    "am</w>": 161,
    "LawSLM,</w>": 162,
    "cus": 163,
    "custo": 164,
    "custom</w>": 165,
    "bui": 166,
    "buil": 167,
    "built</w>": 168,
    "ely</w>": 169,
    "fro": 170,
    "from</w>": 171,
    "sc": 172,
    "scr": 173,
    "scrat": 174,
    "scratch</w>": 175,
    "Python</w>": 176,
    "form": 177,
    "ation,</w>": 178,
    "s.</w>": 179,
    "for</w>": 180,
    "do": 181,
    "um": 182,
    "ent</w>": 183,
    "s,</w>": 184,
    "de": 185,
    "tell": 186,
    "tellig": 187,
    "ence,</w>": 188,
    "ct</w>": 189,
    "Hell": 190,
    "Hello": 191,
    "Hello!</w>": 192,
    "ass": 193,
    "assi": 194,
    "assis": 195,
    "assist</w>": 196,
    "language</w>": 197,
    "mod": 198,
    "hel": 199,
    "help</w>": 200,
    "ey</w>": 201,
    "li": 202,
    "lik": 203,
    "like</w>": 204,
    "lear": 205,
    "comple": 206,
    "complet": 207,
    "completely</w>": 208,
    "using</w>": 209,
    "PyT": 210,
    "PyTor": 211,
    "PyTorc": 212,
    "PyTorch": 213,
    "PyTorch.</w>": 214,
    "cre": 215,
    "creat": 216,
    "created</w>": 217,
    "leg": 218,
    "legal</w>": 219,
    "inform": 220,
    "information,</w>": 221,
    "cod": 222,
    "AI</w>": 223,
    "tas": 224,
    "task": 225,
    "what</w>": 226,
    "nam": 227,
    "name</w>": 228,
    "me</w>": 229,
    "prog": 230,
    "progr": 231,
    "program": 232,
    "programm": 233,
    "ri": 234,
    "con": 235,
    "ing.</w>": 236,
    "ef": 237,
    "effici": 238,
    "efficient</w>": 239,
    "tr": 240,
    "er</w>": 241,
    "ne": 242,
    "wor": 243,
    "fer": 244,
    "igh": 245,
    "tifici": 246,
    "tificial</w>": 247,
    "intellig": 248,
    "intelligence,</w>": 249,
    "op": 250,
    "men": 251,
    "ment": 252,
    "es</w>": 253,
    "elf": 254,
    "elf-": 255,
    "elf-at": 256,
    "elf-att": 257,
    "elf-atten": 258,
    "elf-attenti": 259,
    "elf-attention</w>": 260,
    "compu": 261,
    "uct</w>": 262,
    "ov": 263,
    "qu": 264,
    "ke": 265,
    "sy": 266,
    "sys": 267,
    "syste": 268,
    "so": 269,
    "hell": 270,
    "hello</w>": 271,
    "model": 272,
    "modeling</w>": 273,
    "hi</w>": 274,
    "hey</w>": 275,
    "Hey</w>": 276,
    "ther": 277,
    "there": 278,
    "there!</w>": 279,
    "wou": 280,
    "woul": 281,
    "would</w>": 282,
    "learn</w>": 283,
    "ex": 284,
    "exp": 285,
    "expl": 286,
    "explor": 287,
    "explore</w>": 288,
    "mad": 289,
    "made</w>": 290,
    "are</w>": 291,
    "coding,</w>": 292,
    "gen": 293,
    "gener": 294,
    "general</w>": 295,
    "tasks.</w>": 296,
    "you": 297,
    "your</w>": 298,
    "My</w>": 299,
    "LawSLM.</w>": 300,
    "do</w>": 301,
    "programming,</w>": 302,
    "doc": 303,
    "docum": 304,
    "document</w>": 305,
    "sum": 306,
    "summa": 307,
    "summari": 308,
    "summariz": 309,
    "summarization,</w>": 310,
    "conce": 311,
    "concep": 312,
    "concept": 313,
    "concepts,</w>": 314,
    "wr": 315,
    "writ": 316,
    "writing.</w>": 317,
    "Model": 318,
    "Model?</w>": 319,
    "(SLM": 320,
    "(SLM)</w>": 321,
    "an</w>": 322,
    "decod": 323,
    "decoder": 324,
    "decoder-": 325,
    "decoder-on": 326,
    "decoder-onl": 327,
    "decoder-only</w>": 328,
    "tran": 329,
    "trans": 330,
    "transform": 331,
    "transformer</w>": 332,
    "neu": 333,
    "neur": 334,
    "neural</w>": 335,
    "net": 336,
    "networ": 337,
    "network</w>": 338,
    "des": 339,
    "desig": 340,
    "design": 341,
    "designed</w>": 342,
    "ra": 343,
    "rap": 344,
    "rapi": 345,
    "rapid</w>": 346,
    "tra": 347,
    "train": 348,
    "training</w>": 349,
    "res": 350,
    "resou": 351,
    "resour": 352,
    "resource": 353,
    "resource-": 354,
    "resource-efficient</w>": 355,
    "infer": 356,
    "inference": 357,
    "inference.</w>": 358,
    "Python": 359,
    "Python?</w>": 360,
    "high": 361,
    "high-": 362,
    "high-le": 363,
    "high-lev": 364,
    "high-level</w>": 365,
    "programming</w>": 366,
    "wi": 367,
    "wid": 368,
    "widely</w>": 369,
    "used</w>": 370,
    "artificial</w>": 371,
    "we": 372,
    "web</w>": 373,
    "dev": 374,
    "devel": 375,
    "develop": 376,
    "development": 377,
    "development,</w>": 378,
    "dat": 379,
    "data</w>": 380,
    "sci": 381,
    "science,</w>": 382,
    "au": 383,
    "auto": 384,
    "autom": 385,
    "automation": 386,
    "automation.</w>": 387,
    "does</w>": 388,
    "self-attention</w>": 389,
    "work": 390,
    "work?</w>": 391,
    "Self-attention</w>": 392,
    "compute": 393,
    "computes</w>": 394,
    "sca": 395,
    "scale": 396,
    "scaled</w>": 397,
    "dot": 398,
    "dot-": 399,
    "dot-p": 400,
    "dot-pr": 401,
    "dot-prod": 402,
    "dot-product</w>": 403,
    "mat": 404,
    "matri": 405,
    "matrix</w>": 406,
    "oper": 407,
    "operation": 408,
    "operations</w>": 409,
    "over</w>": 410,
    "quer": 411,
    "queri": 412,
    "querie": 413,
    "queries,</w>": 414,
    "key": 415,
    "keys,</w>": 416,
    "va": 417,
    "val": 418,
    "valu": 419,
    "values</w>": 420,
    "model</w>": 421,
    "toke": 422,
    "token</w>": 423,
    "rel": 424,
    "relation": 425,
    "relations": 426,
    "relationsh": 427,
    "relationshi": 428,
    "relationship": 429,
    "relationships</w>": 430,
    "ac": 431,
    "acro": 432,
    "acros": 433,
    "across</w>": 434,
    "se": 435,
    "sequ": 436,
    "sequence": 437,
    "sequences.</w>": 438,
    "la": 439,
    "law": 440,
    "law?</w>": 441,
    "Law</w>": 442,
    "system</w>": 443,
    "of</w>": 444,
    "ru": 445,
    "rule": 446,
    "rules</w>": 447,
    "enfor": 448,
    "enforce": 449,
    "enforced</w>": 450,
    "thro": 451,
    "throu": 452,
    "throug": 453,
    "through</w>": 454,
    "soci": 455,
    "social</w>": 456,
    "gov": 457,
    "gover": 458,
    "govern": 459,
    "government": 460,
    "governmental</w>": 461,
    "ins": 462,
    "inst": 463,
    "instit": 464,
    "institu": 465,
    "institut": 466,
    "institution": 467,
    "institutions</w>": 468,
    "regu": 469,
    "regul": 470,
    "regulat": 471,
    "regulate</w>": 472,
    "cond": 473,
    "conduct</w>": 474,
    "prote": 475,
    "protect</w>": 476,
    "righ": 477,
    "right": 478,
    "rights.</w>": 479,
    "Tel": 480,
    "Tell</w>": 481,
    "ab": 482,
    "abou": 483,
    "about</w>": 484,
    "AI": 485,
    "AI.</w>": 486,
    "Ar": 487,
    "Artificial</w>": 488,
    "In": 489,
    "Intellig": 490,
    "Intelligen": 491,
    "Intelligenc": 492,
    "Intelligence</w>": 493,
    "refer": 494,
    "refers</w>": 495,
    "comput": 496,
    "computation": 497,
    "computational</w>": 498,
    "system": 499,
    "systems</w>": 500,
    "that</w>": 501,
    "per": 502,
    "perfor": 503,
    "perform</w>": 504,
    "tasks</w>": 505,
    "req": 506,
    "requi": 507,
    "requir": 508,
    "requiring</w>": 509,
    "hum": 510,
    "human": 511,
    "human-": 512,
    "human-like</w>": 513,
    "su": 514,
    "such</w>": 515,
    "as</w>": 516,
    "learn": 517,
    "learning,</w>": 518,
    "reas": 519,
    "reason": 520,
    "reasoning,</w>": 521,
    "prob": 522,
    "proble": 523,
    "problem</w>": 524,
    "sol": 525,
    "solv": 526,
    "solving.</w>": 527
  },
  "frequencies": {
    "<pad>": 1,
    "<unk>": 1,
    "<s>": 1,
    "</s>": 1,
    "<mask>": 1,
    "\n</w>": 1,
    "!</w>": 1,
    "(": 1,
    ")</w>": 1,
    ",</w>": 1,
    "-": 1,
    ".</w>": 1,
    ":</w>": 1,
    "?</w>": 1,
    "A": 1,
    "A</w>": 1,
    "H": 1,
    "I": 1,
    "I</w>": 1,
    "L": 1,
    "M": 1,
    "P": 1,
    "S": 1,
    "T": 1,
    "U": 1,
    "W": 1,
    "a": 1,
    "a</w>": 1,
    "b": 1,
    "b</w>": 1,
    "c": 1,
    "d": 1,
    "d</w>": 1,
    "e": 1,
    "e</w>": 1,
    "f": 1,
    "f</w>": 1,
    "g": 1,
    "g</w>": 1,
    "h": 1,
    "h</w>": 1,
    "i": 1,
    "i</w>": 1,
    "k": 1,
    "k</w>": 1,
    "l": 1,
    "l</w>": 1,
    "m": 1,
    "m</w>": 1,
    "n": 1,
    "n</w>": 1,
    "o": 1,
    "o</w>": 1,
    "p": 1,
    "p</w>": 1,
    "q": 1,
    "r": 1,
    "r</w>": 1,
    "s": 1,
    "s</w>": 1,
    "t": 1,
    "t</w>": 1,
    "u": 1,
    "u</w>": 1,
    "v": 1,
    "w": 1,
    "w</w>": 1,
    "x": 1,
    "x</w>": 1,
    "y": 1,
    "y</w>": 1,
    "z": 1,
    "er": 1320,
    "an": 1140,
    "in": 1140,
    "el": 1080,
    "SL": 1080,
    "SLM": 1080,
    "at": 1020,
    "en": 900,
    "Us": 780,
    "User": 780,
    "User:</w>": 780,
    "SLM:</w>": 780,
    "od": 780,
    "on": 780,
    "le": 600,
    "or": 600,
    "and</w>": 600,
    "yo": 540,
    "ro": 540,
    "al</w>": 540,
    "you</w>": 480,
    "gu": 480,
    "ion": 480,
    "is</w>": 480,
    "ce": 480,
    "angu": 420,
    "angua": 420,
    "anguag": 420,
    "anguage</w>": 420,
    "th": 420,
    "at</w>": 420,
    "ma": 420,
    "re": 420,
    "ation": 420,
    "ell": 360,
    "ing</w>": 360,
    "hat</w>": 360,
    "us": 360,
    "el</w>": 360,
    "Py": 360,
    "ing": 360,
    "ci": 360,
    "ig": 360,
    "ca": 300,
    "as": 300,
    "it": 300,
    "to</w>": 300,
    "or</w>": 300,
    "La": 300,
    "to": 300,
    "Sma": 300,
    "Smal": 300,
    "Small</w>": 300,
    "Language</w>": 300,
    "Mod": 300,
    "on</w>": 300,
    "for": 300,
    "ence": 300,
    "can</w>": 240,
    "What</w>": 240,
    "ar": 240,
    "Law": 240,
    "LawSLM": 240,
    "Model</w>": 240,
    "ui": 240,
    "co": 240,
    "com": 240,
    "comp": 240,
    "ch</w>": 240,
    "Pyth": 240,
    "ed</w>": 240,
    "ing,</w>": 240,
    "am": 240,
    "pro": 240,
    "fi": 240,
    "fici": 240,
    "ti": 240,
    "te": 240,
    "Ho": 180,
    "How</w>": 180,
    "wit": 180,
    "with</w>": 180,
    "tod": 180,
    "toda": 180,
    "today": 180,
    "today?</w>": 180,
    "ou": 180,
    "wh": 180,
    "who</w>": 180,
    "am</w>": 180,
    "LawSLM,</w>": 180,
    "cus": 180,
    "custo": 180,
    "custom</w>": 180,
    "bui": 180,
    "buil": 180,
    "built</w>": 180,
    "ely</w>": 180,
    "fro": 180,
    "from</w>": 180,
    "sc": 180,
    "scr": 180,
    "scrat": 180,
    "scratch</w>": 180,
    "Python</w>": 180,
    "form": 180,
    "ation,</w>": 180,
    "s.</w>": 180,
    "for</w>": 180,
    "do": 180,
    "um": 180,
    "ent</w>": 180,
    "s,</w>": 180,
    "de": 180,
    "tell": 180,
    "tellig": 180,
    "ence,</w>": 180,
    "ct</w>": 180,
    "Hell": 120,
    "Hello": 120,
    "Hello!</w>": 120,
    "ass": 120,
    "assi": 120,
    "assis": 120,
    "assist</w>": 120,
    "language</w>": 120,
    "mod": 120,
    "hel": 120,
    "help</w>": 120,
    "ey</w>": 120,
    "li": 120,
    "lik": 120,
    "like</w>": 120,
    "lear": 120,
    "comple": 120,
    "complet": 120,
    "completely</w>": 120,
    "using</w>": 120,
    "PyT": 120,
    "PyTor": 120,
    "PyTorc": 120,
    "PyTorch": 120,
    "PyTorch.</w>": 120,
    "cre": 120,
    "creat": 120,
    "created</w>": 120,
    "leg": 120,
    "legal</w>": 120,
    "inform": 120,
    "information,</w>": 120,
    "cod": 120,
    "AI</w>": 120,
    "tas": 120,
    "task": 120,
    "what</w>": 120,
    "nam": 120,
    "name</w>": 120,
    "me</w>": 120,
    "prog": 120,
    "progr": 120,
    "program": 120,
    "programm": 120,
    "ri": 120,
    "con": 120,
    "ing.</w>": 120,
    "ef": 120,
    "effici": 120,
    "efficient</w>": 120,
    "tr": 120,
    "er</w>": 120,
    "ne": 120,
    "wor": 120,
    "fer": 120,
    "igh": 120,
    "tifici": 120,
    "tificial</w>": 120,
    "intellig": 120,
    "intelligence,</w>": 120,
    "op": 120,
    "men": 120,
    "ment": 120,
    "es</w>": 120,
    "elf": 120,
    "elf-": 120,
    "elf-at": 120,
    "elf-att": 120,
    "elf-atten": 120,
    "elf-attenti": 120,
    "elf-attention</w>": 120,
    "compu": 120,
    "uct</w>": 120,
    "ov": 120,
    "qu": 120,
    "ke": 120,
    "sy": 120,
    "sys": 120,
    "syste": 120,
    "so": 120,
    "hell": 60,
    "hello</w>": 60,
    "model": 60,
    "modeling</w>": 60,
    "hi</w>": 60,
    "hey</w>": 60,
    "Hey</w>": 60,
    "ther": 60,
    "there": 60,
    "there!</w>": 60,
    "wou": 60,
    "woul": 60,
    "would</w>": 60,
    "learn</w>": 60,
    "ex": 60,
    "exp": 60,
    "expl": 60,
    "explor": 60,
    "explore</w>": 60,
    "mad": 60,
    "made</w>": 60,
    "are</w>": 60,
    "coding,</w>": 60,
    "gen": 60,
    "gener": 60,
    "general</w>": 60,
    "tasks.</w>": 60,
    "you": 60,
    "your</w>": 60,
    "My</w>": 60,
    "LawSLM.</w>": 60,
    "do</w>": 60,
    "programming,</w>": 60,
    "doc": 60,
    "docum": 60,
    "document</w>": 60,
    "sum": 60,
    "summa": 60,
    "summari": 60,
    "summariz": 60,
    "summarization,</w>": 60,
    "conce": 60,
    "concep": 60,
    "concept": 60,
    "concepts,</w>": 60,
    "wr": 60,
    "writ": 60,
    "writing.</w>": 60,
    "Model": 60,
    "Model?</w>": 60,
    "(SLM": 60,
    "(SLM)</w>": 60,
    "an</w>": 60,
    "decod": 60,
    "decoder": 60,
    "decoder-": 60,
    "decoder-on": 60,
    "decoder-onl": 60,
    "decoder-only</w>": 60,
    "tran": 60,
    "trans": 60,
    "transform": 60,
    "transformer</w>": 60,
    "neu": 60,
    "neur": 60,
    "neural</w>": 60,
    "net": 60,
    "networ": 60,
    "network</w>": 60,
    "des": 60,
    "desig": 60,
    "design": 60,
    "designed</w>": 60,
    "ra": 60,
    "rap": 60,
    "rapi": 60,
    "rapid</w>": 60,
    "tra": 60,
    "train": 60,
    "training</w>": 60,
    "res": 60,
    "resou": 60,
    "resour": 60,
    "resource": 60,
    "resource-": 60,
    "resource-efficient</w>": 60,
    "infer": 60,
    "inference": 60,
    "inference.</w>": 60,
    "Python": 60,
    "Python?</w>": 60,
    "high": 60,
    "high-": 60,
    "high-le": 60,
    "high-lev": 60,
    "high-level</w>": 60,
    "programming</w>": 60,
    "wi": 60,
    "wid": 60,
    "widely</w>": 60,
    "used</w>": 60,
    "artificial</w>": 60,
    "we": 60,
    "web</w>": 60,
    "dev": 60,
    "devel": 60,
    "develop": 60,
    "development": 60,
    "development,</w>": 60,
    "dat": 60,
    "data</w>": 60,
    "sci": 60,
    "science,</w>": 60,
    "au": 60,
    "auto": 60,
    "autom": 60,
    "automation": 60,
    "automation.</w>": 60,
    "does</w>": 60,
    "self-attention</w>": 60,
    "work": 60,
    "work?</w>": 60,
    "Self-attention</w>": 60,
    "compute": 60,
    "computes</w>": 60,
    "sca": 60,
    "scale": 60,
    "scaled</w>": 60,
    "dot": 60,
    "dot-": 60,
    "dot-p": 60,
    "dot-pr": 60,
    "dot-prod": 60,
    "dot-product</w>": 60,
    "mat": 60,
    "matri": 60,
    "matrix</w>": 60,
    "oper": 60,
    "operation": 60,
    "operations</w>": 60,
    "over</w>": 60,
    "quer": 60,
    "queri": 60,
    "querie": 60,
    "queries,</w>": 60,
    "key": 60,
    "keys,</w>": 60,
    "va": 60,
    "val": 60,
    "valu": 60,
    "values</w>": 60,
    "model</w>": 60,
    "toke": 60,
    "token</w>": 60,
    "rel": 60,
    "relation": 60,
    "relations": 60,
    "relationsh": 60,
    "relationshi": 60,
    "relationship": 60,
    "relationships</w>": 60,
    "ac": 60,
    "acro": 60,
    "acros": 60,
    "across</w>": 60,
    "se": 60,
    "sequ": 60,
    "sequence": 60,
    "sequences.</w>": 60,
    "la": 60,
    "law": 60,
    "law?</w>": 60,
    "Law</w>": 60,
    "system</w>": 60,
    "of</w>": 60,
    "ru": 60,
    "rule": 60,
    "rules</w>": 60,
    "enfor": 60,
    "enforce": 60,
    "enforced</w>": 60,
    "thro": 60,
    "throu": 60,
    "throug": 60,
    "through</w>": 60,
    "soci": 60,
    "social</w>": 60,
    "gov": 60,
    "gover": 60,
    "govern": 60,
    "government": 60,
    "governmental</w>": 60,
    "ins": 60,
    "inst": 60,
    "instit": 60,
    "institu": 60,
    "institut": 60,
    "institution": 60,
    "institutions</w>": 60,
    "regu": 60,
    "regul": 60,
    "regulat": 60,
    "regulate</w>": 60,
    "cond": 60,
    "conduct</w>": 60,
    "prote": 60,
    "protect</w>": 60,
    "righ": 60,
    "right": 60,
    "rights.</w>": 60,
    "Tel": 60,
    "Tell</w>": 60,
    "ab": 60,
    "abou": 60,
    "about</w>": 60,
    "AI": 60,
    "AI.</w>": 60,
    "Ar": 60,
    "Artificial</w>": 60,
    "In": 60,
    "Intellig": 60,
    "Intelligen": 60,
    "Intelligenc": 60,
    "Intelligence</w>": 60,
    "refer": 60,
    "refers</w>": 60,
    "comput": 60,
    "computation": 60,
    "computational</w>": 60,
    "system": 60,
    "systems</w>": 60,
    "that</w>": 60,
    "per": 60,
    "perfor": 60,
    "perform</w>": 60,
    "tasks</w>": 60,
    "req": 60,
    "requi": 60,
    "requir": 60,
    "requiring</w>": 60,
    "hum": 60,
    "human": 60,
    "human-": 60,
    "human-like</w>": 60,
    "su": 60,
    "such</w>": 60,
    "as</w>": 60,
    "learn": 60,
    "learning,</w>": 60,
    "reas": 60,
    "reason": 60,
    "reasoning,</w>": 60,
    "prob": 60,
    "proble": 60,
    "problem</w>": 60,
    "sol": 60,
    "solv": 60,
    "solving.</w>": 60
  },
  "special_tokens": [
    "<pad>",
    "<unk>",
    "<s>",
    "</s>",
    "<mask>"
  ]
}