{
  "token2id": {
    "<pad>": 0,
    "<unk>": 1,
    "<s>": 2,
    "</s>": 3,
    "<mask>": 4,
    "\n</w>": 5,
    "!</w>": 6,
    "(": 7,
    ")</w>": 8,
    ",</w>": 9,
    "-": 10,
    ".</w>": 11,
    ":</w>": 12,
    "?</w>": 13,
    "A": 14,
    "A</w>": 15,
    "H": 16,
    "I": 17,
    "I</w>": 18,
    "K": 19,
    "L": 20,
    "M": 21,
    "P": 22,
    "S": 23,
    "T": 24,
    "U": 25,
    "W": 26,
    "a": 27,
    "a</w>": 28,
    "b": 29,
    "b</w>": 30,
    "c": 31,
    "d": 32,
    "d</w>": 33,
    "e": 34,
    "e</w>": 35,
    "f": 36,
    "f</w>": 37,
    "g": 38,
    "g</w>": 39,
    "h": 40,
    "h</w>": 41,
    "i": 42,
    "i</w>": 43,
    "j": 44,
    "k": 45,
    "k</w>": 46,
    "l": 47,
    "l</w>": 48,
    "m": 49,
    "m</w>": 50,
    "n": 51,
    "n</w>": 52,
    "o": 53,
    "o</w>": 54,
    "p": 55,
    "p</w>": 56,
    "q": 57,
    "r": 58,
    "r</w>": 59,
    "s": 60,
    "s</w>": 61,
    "t": 62,
    "t</w>": 63,
    "u": 64,
    "u</w>": 65,
    "v": 66,
    "w": 67,
    "w</w>": 68,
    "x": 69,
    "x</w>": 70,
    "y": 71,
    "y</w>": 72,
    "z": 73,
    "in": 74,
    "er": 75,
    "an": 76,
    "el": 77,
    "at": 78,
    "SL": 79,
    "SLM": 80,
    "ro": 81,
    "on": 82,
    "en": 83,
    "Us": 84,
    "User": 85,
    "User:</w>": 86,
    "SLM:</w>": 87,
    "le": 88,
    "re": 89,
    "pro": 90,
    "is</w>": 91,
    "ing": 92,
    "or": 93,
    "ma": 94,
    "de": 95,
    "and</w>": 96,
    "al</w>": 97,
    "ion": 98,
    "yo": 99,
    "st": 100,
    "ation": 101,
    "you</w>": 102,
    "ing,</w>": 103,
    "ce": 104,
    "an</w>": 105,
    "th": 106,
    "at</w>": 107,
    "gu": 108,
    "ing</w>": 109,
    "it": 110,
    "ell": 111,
    "as": 112,
    "hat</w>": 113,
    "to</w>": 114,
    "ar": 115,
    "or</w>": 116,
    "angu": 117,
    "angua": 118,
    "anguag": 119,
    "ed</w>": 120,
    "for": 121,
    "ra": 122,
    "ci": 123,
    "ig": 124,
    "to": 125,
    "La": 126,
    "anguage</w>": 127,
    "ation,</w>": 128,
    "ence": 129,
    "can</w>": 130,
    "ass": 131,
    "assi": 132,
    "What</w>": 133,
    "wh": 134,
    "who</w>": 135,
    "Law": 136,
    "LawSLM": 137,
    "Sma": 138,
    "Smal": 139,
    "Small</w>": 140,
    "Language</w>": 141,
    "Mo": 142,
    "del</w>": 143,
    "dev": 144,
    "devel": 145,
    "develo": 146,
    "co": 147,
    "Am": 148,
    "Ami": 149,
    "Amit</w>": 150,
    "Ku": 151,
    "Kuma": 152,
    "cre": 153,
    "creat": 154,
    "ct</w>": 155,
    "form": 156,
    "prog": 157,
    "progra": 158,
    "program": 159,
    "programm": 160,
    "so": 161,
    "qu": 162,
    "on</w>": 163,
    "me</w>": 164,
    "fi": 165,
    "fici": 166,
    "ti": 167,
    "Ho": 168,
    "How</w>": 169,
    "tod": 170,
    "toda": 171,
    "today": 172,
    "today?</w>": 173,
    "hel": 174,
    "help</w>": 175,
    "lear": 176,
    "Model</w>": 177,
    "develop": 178,
    "com": 179,
    "comp": 180,
    "sc": 181,
    "ch</w>": 182,
    "created</w>": 183,
    "as</w>": 184,
    "er</w>": 185,
    "of</w>": 186,
    "AI</w>": 187,
    "assist": 188,
    "leg": 189,
    "legal</w>": 190,
    "inform": 191,
    "information,</w>": 192,
    "wit": 193,
    "with</w>": 194,
    "programming,</w>": 195,
    "wr": 196,
    "writ": 197,
    "du": 198,
    "wor": 199,
    "s.</w>": 200,
    "ing.</w>": 201,
    "for</w>": 202,
    "do": 203,
    "um": 204,
    "ent</w>": 205,
    "s,</w>": 206,
    "tell": 207,
    "tellig": 208,
    "ence,</w>": 209,
    "es</w>": 210,
    "ut": 211,
    "Hell": 212,
    "Hello": 213,
    "Hello!</w>": 214,
    "ey</w>": 215,
    "ou": 216,
    "ld</w>": 217,
    "li": 218,
    "lik": 219,
    "like</w>": 220,
    "am</w>": 221,
    "LawSLM,</w>": 222,
    "ely</w>": 223,
    "fro": 224,
    "from</w>": 225,
    "scr": 226,
    "scrat": 227,
    "scratch</w>": 228,
    "by</w>": 229,
    "Kumar": 230,
    "Kumar</w>": 231,
    "proj": 232,
    "proje": 233,
    "LawSLM.</w>": 234,
    "bu": 235,
    "bui": 236,
    "buil": 237,
    "built</w>": 238,
    "assistan": 239,
    "assistant</w>": 240,
    "ab": 241,
    "der": 242,
    "ding</w>": 243,
    "writing,</w>": 244,
    "sol": 245,
    "solv": 246,
    "al": 247,
    "prob": 248,
    "proble": 249,
    "learn": 250,
    "learning,</w>": 251,
    "se": 252,
    "ans": 253,
    "what</w>": 254,
    "na": 255,
    "name</w>": 256,
    "ri": 257,
    "con": 258,
    "ef": 259,
    "effici": 260,
    "efficient</w>": 261,
    "ne": 262,
    "ur": 263,
    "fer": 264,
    "Py": 265,
    "Pyth": 266,
    "igh": 267,
    "tifici": 268,
    "tificial</w>": 269,
    "intellig": 270,
    "intelligence,</w>": 271,
    "men": 272,
    "ment": 273,
    "elf": 274,
    "elf-": 275,
    "elf-at": 276,
    "elf-att": 277,
    "elf-atten": 278,
    "elf-attenti": 279,
    "elf-attention</w>": 280,
    "comput": 281,
    "duct</w>": 282,
    "per": 283,
    "ov": 284,
    "ke": 285,
    "sy": 286,
    "syst": 287,
    "syste": 288,
    "hell": 289,
    "hello</w>": 290,
    "assis": 291,
    "assist</w>": 292,
    "hi</w>": 293,
    "hey</w>": 294,
    "Hey</w>": 295,
    "ther": 296,
    "there": 297,
    "there!</w>": 298,
    "wou": 299,
    "would</w>": 300,
    "learn</w>": 301,
    "ex": 302,
    "exp": 303,
    "expl": 304,
    "explor": 305,
    "explore</w>": 306,
    "mad": 307,
    "made</w>": 308,
    "developed</w>": 309,
    "comple": 310,
    "complet": 311,
    "completely</w>": 312,
    "Kumar.</w>": 313,
    "was</w>": 314,
    "cu": 315,
    "cust": 316,
    "custo": 317,
    "custom</w>": 318,
    "projec": 319,
    "project": 320,
    "project.</w>": 321,
    "Kumar?</w>": 322,
    "the</w>": 323,
    "developer</w>": 324,
    "creator</w>": 325,
    "He</w>": 326,
    "this</w>": 327,
    "project</w>": 328,
    "develop</w>": 329,
    "ca": 330,
    "cap": 331,
    "capab": 332,
    "capabl": 333,
    "capable</w>": 334,
    "un": 335,
    "under": 336,
    "underst": 337,
    "understan": 338,
    "understanding</w>": 339,
    "languag": 340,
    "language": 341,
    "language,</w>": 342,
    "prov": 343,
    "provi": 344,
    "providing</w>": 345,
    "assisting</w>": 346,
    "edu": 347,
    "educ": 348,
    "education,</w>": 349,
    "solving</w>": 350,
    "real": 351,
    "real-": 352,
    "real-wor": 353,
    "real-world</w>": 354,
    "problem": 355,
    "problems.</w>": 356,
    "are</w>": 357,
    "rese": 358,
    "resear": 359,
    "researc": 360,
    "research": 361,
    "research,</w>": 362,
    "gen": 363,
    "gener": 364,
    "general</w>": 365,
    "que": 366,
    "quest": 367,
    "questi": 368,
    "question</w>": 369,
    "answ": 370,
    "answer": 371,
    "answering.</w>": 372,
    "you": 373,
    "your</w>": 374,
    "My</w>": 375,
    "do</w>": 376,
    "doc": 377,
    "docum": 378,
    "document</w>": 379,
    "sum": 380,
    "summa": 381,
    "summari": 382,
    "summariz": 383,
    "summarization,</w>": 384,
    "conce": 385,
    "concep": 386,
    "concept": 387,
    "concepts,</w>": 388,
    "writing.</w>": 389,
    "Mod": 390,
    "Model": 391,
    "Model?</w>": 392,
    "(SLM": 393,
    "(SLM)</w>": 394,
    "deco": 395,
    "decoder": 396,
    "decoder-": 397,
    "decoder-on": 398,
    "decoder-onl": 399,
    "decoder-only</w>": 400,
    "tr": 401,
    "trans": 402,
    "transform": 403,
    "transformer</w>": 404,
    "neur": 405,
    "neural</w>": 406,
    "net": 407,
    "networ": 408,
    "network</w>": 409,
    "des": 410,
    "desig": 411,
    "design": 412,
    "designed</w>": 413,
    "rap": 414,
    "rapi": 415,
    "rapid</w>": 416,
    "tra": 417,
    "train": 418,
    "training</w>": 419,
    "reso": 420,
    "resour": 421,
    "resource": 422,
    "resource-": 423,
    "resource-efficient</w>": 424,
    "infer": 425,
    "inference": 426,
    "inference.</w>": 427,
    "Python": 428,
    "Python?</w>": 429,
    "Python</w>": 430,
    "high": 431,
    "high-": 432,
    "high-le": 433,
    "high-lev": 434,
    "high-leve": 435,
    "high-level</w>": 436,
    "programming</w>": 437,
    "language</w>": 438,
    "wi": 439,
    "wid": 440,
    "widely</w>": 441,
    "us": 442,
    "used</w>": 443,
    "artificial</w>": 444,
    "we": 445,
    "web</w>": 446,
    "development": 447,
    "development,</w>": 448,
    "dat": 449,
    "data</w>": 450,
    "sci": 451,
    "science,</w>": 452,
    "au": 453,
    "auto": 454,
    "autom": 455,
    "automation": 456,
    "automation.</w>": 457,
    "does</w>": 458,
    "self-attention</w>": 459,
    "work": 460,
    "work?</w>": 461,
    "Self-attention</w>": 462,
    "computes</w>": 463,
    "sca": 464,
    "scale": 465,
    "scaled</w>": 466,
    "dot": 467,
    "dot-": 468,
    "dot-pro": 469,
    "dot-product</w>": 470,
    "mat": 471,
    "matri": 472,
    "matrix</w>": 473,
    "oper": 474,
    "operation": 475,
    "operations</w>": 476,
    "over</w>": 477,
    "quer": 478,
    "queri": 479,
    "querie": 480,
    "queries,</w>": 481,
    "key": 482,
    "keys,</w>": 483,
    "val": 484,
    "valu": 485,
    "values</w>": 486,
    "mo": 487,
    "model</w>": 488,
    "toke": 489,
    "token</w>": 490,
    "rel": 491,
    "relation": 492,
    "relations": 493,
    "relationsh": 494,
    "relationshi": 495,
    "relationship": 496,
    "relationships</w>": 497,
    "ac": 498,
    "acro": 499,
    "acros": 500,
    "across</w>": 501,
    "sequ": 502,
    "sequence": 503,
    "sequences.</w>": 504,
    "la": 505,
    "law": 506,
    "law?</w>": 507,
    "Law</w>": 508,
    "system</w>": 509,
    "ru": 510,
    "rule": 511,
    "rules</w>": 512,
    "enfor": 513,
    "enforce": 514,
    "enforced</w>": 515,
    "thro": 516,
    "throu": 517,
    "throug": 518,
    "through</w>": 519,
    "soci": 520,
    "social</w>": 521,
    "gov": 522,
    "gover": 523,
    "govern": 524,
    "government": 525,
    "governmental</w>": 526,
    "inst": 527,
    "instit": 528,
    "institut": 529,
    "institution": 530,
    "institutions</w>": 531,
    "regu": 532,
    "regul": 533,
    "regulat": 534,
    "regulate</w>": 535,
    "conduct</w>": 536,
    "prot": 537,
    "prote": 538,
    "protect</w>": 539,
    "righ": 540,
    "right": 541,
    "rights.</w>": 542,
    "Tel": 543,
    "Tell</w>": 544,
    "abou": 545,
    "about</w>": 546,
    "AI": 547,
    "AI.</w>": 548,
    "Ar": 549,
    "Artificial</w>": 550,
    "In": 551,
    "Intellig": 552,
    "Intelligen": 553,
    "Intelligenc": 554,
    "Intelligence</w>": 555,
    "refer": 556,
    "refers</w>": 557,
    "computation": 558,
    "computational</w>": 559,
    "system": 560,
    "systems</w>": 561,
    "that</w>": 562,
    "perfor": 563,
    "perform</w>": 564,
    "tas": 565,
    "task": 566,
    "tasks</w>": 567,
    "requ": 568,
    "requi": 569,
    "requir": 570,
    "requiring</w>": 571,
    "hum": 572,
    "human": 573,
    "human-": 574,
    "human-like</w>": 575,
    "su": 576,
    "such</w>": 577,
    "reas": 578,
    "reason": 579,
    "reasoning,</w>": 580,
    "problem</w>": 581,
    "solving.</w>": 582
  },
  "frequencies": {
    "<pad>": 1,
    "<unk>": 1,
    "<s>": 1,
    "</s>": 1,
    "<mask>": 1,
    "\n</w>": 1,
    "!</w>": 1,
    "(": 1,
    ")</w>": 1,
    ",</w>": 1,
    "-": 1,
    ".</w>": 1,
    ":</w>": 1,
    "?</w>": 1,
    "A": 1,
    "A</w>": 1,
    "H": 1,
    "I": 1,
    "I</w>": 1,
    "K": 1,
    "L": 1,
    "M": 1,
    "P": 1,
    "S": 1,
    "T": 1,
    "U": 1,
    "W": 1,
    "a": 1,
    "a</w>": 1,
    "b": 1,
    "b</w>": 1,
    "c": 1,
    "d": 1,
    "d</w>": 1,
    "e": 1,
    "e</w>": 1,
    "f": 1,
    "f</w>": 1,
    "g": 1,
    "g</w>": 1,
    "h": 1,
    "h</w>": 1,
    "i": 1,
    "i</w>": 1,
    "j": 1,
    "k": 1,
    "k</w>": 1,
    "l": 1,
    "l</w>": 1,
    "m": 1,
    "m</w>": 1,
    "n": 1,
    "n</w>": 1,
    "o": 1,
    "o</w>": 1,
    "p": 1,
    "p</w>": 1,
    "q": 1,
    "r": 1,
    "r</w>": 1,
    "s": 1,
    "s</w>": 1,
    "t": 1,
    "t</w>": 1,
    "u": 1,
    "u</w>": 1,
    "v": 1,
    "w": 1,
    "w</w>": 1,
    "x": 1,
    "x</w>": 1,
    "y": 1,
    "y</w>": 1,
    "z": 1,
    "in": 1560,
    "er": 1500,
    "an": 1320,
    "el": 1200,
    "at": 1200,
    "SL": 1140,
    "SLM": 1140,
    "ro": 900,
    "on": 900,
    "en": 900,
    "Us": 840,
    "User": 840,
    "User:</w>": 840,
    "SLM:</w>": 840,
    "le": 720,
    "re": 660,
    "pro": 660,
    "is</w>": 660,
    "ing": 660,
    "or": 600,
    "ma": 600,
    "de": 600,
    "and</w>": 600,
    "al</w>": 600,
    "ion": 600,
    "yo": 540,
    "st": 540,
    "ation": 540,
    "you</w>": 480,
    "ing,</w>": 480,
    "ce": 480,
    "an</w>": 420,
    "th": 420,
    "at</w>": 420,
    "gu": 420,
    "ing</w>": 420,
    "it": 420,
    "ell": 360,
    "as": 360,
    "hat</w>": 360,
    "to</w>": 360,
    "ar": 360,
    "or</w>": 360,
    "angu": 360,
    "angua": 360,
    "anguag": 360,
    "ed</w>": 360,
    "for": 360,
    "ra": 360,
    "ci": 360,
    "ig": 360,
    "to": 300,
    "La": 300,
    "anguage</w>": 300,
    "ation,</w>": 300,
    "ence": 300,
    "can</w>": 240,
    "ass": 240,
    "assi": 240,
    "What</w>": 240,
    "wh": 240,
    "who</w>": 240,
    "Law": 240,
    "LawSLM": 240,
    "Sma": 240,
    "Smal": 240,
    "Small</w>": 240,
    "Language</w>": 240,
    "Mo": 240,
    "del</w>": 240,
    "dev": 240,
    "devel": 240,
    "develo": 240,
    "co": 240,
    "Am": 240,
    "Ami": 240,
    "Amit</w>": 240,
    "Ku": 240,
    "Kuma": 240,
    "cre": 240,
    "creat": 240,
    "ct</w>": 240,
    "form": 240,
    "prog": 240,
    "progra": 240,
    "program": 240,
    "programm": 240,
    "so": 240,
    "qu": 240,
    "on</w>": 240,
    "me</w>": 240,
    "fi": 240,
    "fici": 240,
    "ti": 240,
    "Ho": 180,
    "How</w>": 180,
    "tod": 180,
    "toda": 180,
    "today": 180,
    "today?</w>": 180,
    "hel": 180,
    "help</w>": 180,
    "lear": 180,
    "Model</w>": 180,
    "develop": 180,
    "com": 180,
    "comp": 180,
    "sc": 180,
    "ch</w>": 180,
    "created</w>": 180,
    "as</w>": 180,
    "er</w>": 180,
    "of</w>": 180,
    "AI</w>": 180,
    "assist": 180,
    "leg": 180,
    "legal</w>": 180,
    "inform": 180,
    "information,</w>": 180,
    "wit": 180,
    "with</w>": 180,
    "programming,</w>": 180,
    "wr": 180,
    "writ": 180,
    "du": 180,
    "wor": 180,
    "s.</w>": 180,
    "ing.</w>": 180,
    "for</w>": 180,
    "do": 180,
    "um": 180,
    "ent</w>": 180,
    "s,</w>": 180,
    "tell": 180,
    "tellig": 180,
    "ence,</w>": 180,
    "es</w>": 180,
    "ut": 180,
    "Hell": 120,
    "Hello": 120,
    "Hello!</w>": 120,
    "ey</w>": 120,
    "ou": 120,
    "ld</w>": 120,
    "li": 120,
    "lik": 120,
    "like</w>": 120,
    "am</w>": 120,
    "LawSLM,</w>": 120,
    "ely</w>": 120,
    "fro": 120,
    "from</w>": 120,
    "scr": 120,
    "scrat": 120,
    "scratch</w>": 120,
    "by</w>": 120,
    "Kumar": 120,
    "Kumar</w>": 120,
    "proj": 120,
    "proje": 120,
    "LawSLM.</w>": 120,
    "bu": 120,
    "bui": 120,
    "buil": 120,
    "built</w>": 120,
    "assistan": 120,
    "assistant</w>": 120,
    "ab": 120,
    "der": 120,
    "ding</w>": 120,
    "writing,</w>": 120,
    "sol": 120,
    "solv": 120,
    "al": 120,
    "prob": 120,
    "proble": 120,
    "learn": 120,
    "learning,</w>": 120,
    "se": 120,
    "ans": 120,
    "what</w>": 120,
    "na": 120,
    "name</w>": 120,
    "ri": 120,
    "con": 120,
    "ef": 120,
    "effici": 120,
    "efficient</w>": 120,
    "ne": 120,
    "ur": 120,
    "fer": 120,
    "Py": 120,
    "Pyth": 120,
    "igh": 120,
    "tifici": 120,
    "tificial</w>": 120,
    "intellig": 120,
    "intelligence,</w>": 120,
    "men": 120,
    "ment": 120,
    "elf": 120,
    "elf-": 120,
    "elf-at": 120,
    "elf-att": 120,
    "elf-atten": 120,
    "elf-attenti": 120,
    "elf-attention</w>": 120,
    "comput": 120,
    "duct</w>": 120,
    "per": 120,
    "ov": 120,
    "ke": 120,
    "sy": 120,
    "syst": 120,
    "syste": 120,
    "hell": 60,
    "hello</w>": 60,
    "assis": 60,
    "assist</w>": 60,
    "hi</w>": 60,
    "hey</w>": 60,
    "Hey</w>": 60,
    "ther": 60,
    "there": 60,
    "there!</w>": 60,
    "wou": 60,
    "would</w>": 60,
    "learn</w>": 60,
    "ex": 60,
    "exp": 60,
    "expl": 60,
    "explor": 60,
    "explore</w>": 60,
    "mad": 60,
    "made</w>": 60,
    "developed</w>": 60,
    "comple": 60,
    "complet": 60,
    "completely</w>": 60,
    "Kumar.</w>": 60,
    "was</w>": 60,
    "cu": 60,
    "cust": 60,
    "custo": 60,
    "custom</w>": 60,
    "projec": 60,
    "project": 60,
    "project.</w>": 60,
    "Kumar?</w>": 60,
    "the</w>": 60,
    "developer</w>": 60,
    "creator</w>": 60,
    "He</w>": 60,
    "this</w>": 60,
    "project</w>": 60,
    "develop</w>": 60,
    "ca": 60,
    "cap": 60,
    "capab": 60,
    "capabl": 60,
    "capable</w>": 60,
    "un": 60,
    "under": 60,
    "underst": 60,
    "understan": 60,
    "understanding</w>": 60,
    "languag": 60,
    "language": 60,
    "language,</w>": 60,
    "prov": 60,
    "provi": 60,
    "providing</w>": 60,
    "assisting</w>": 60,
    "edu": 60,
    "educ": 60,
    "education,</w>": 60,
    "solving</w>": 60,
    "real": 60,
    "real-": 60,
    "real-wor": 60,
    "real-world</w>": 60,
    "problem": 60,
    "problems.</w>": 60,
    "are</w>": 60,
    "rese": 60,
    "resear": 60,
    "researc": 60,
    "research": 60,
    "research,</w>": 60,
    "gen": 60,
    "gener": 60,
    "general</w>": 60,
    "que": 60,
    "quest": 60,
    "questi": 60,
    "question</w>": 60,
    "answ": 60,
    "answer": 60,
    "answering.</w>": 60,
    "you": 60,
    "your</w>": 60,
    "My</w>": 60,
    "do</w>": 60,
    "doc": 60,
    "docum": 60,
    "document</w>": 60,
    "sum": 60,
    "summa": 60,
    "summari": 60,
    "summariz": 60,
    "summarization,</w>": 60,
    "conce": 60,
    "concep": 60,
    "concept": 60,
    "concepts,</w>": 60,
    "writing.</w>": 60,
    "Mod": 60,
    "Model": 60,
    "Model?</w>": 60,
    "(SLM": 60,
    "(SLM)</w>": 60,
    "deco": 60,
    "decoder": 60,
    "decoder-": 60,
    "decoder-on": 60,
    "decoder-onl": 60,
    "decoder-only</w>": 60,
    "tr": 60,
    "trans": 60,
    "transform": 60,
    "transformer</w>": 60,
    "neur": 60,
    "neural</w>": 60,
    "net": 60,
    "networ": 60,
    "network</w>": 60,
    "des": 60,
    "desig": 60,
    "design": 60,
    "designed</w>": 60,
    "rap": 60,
    "rapi": 60,
    "rapid</w>": 60,
    "tra": 60,
    "train": 60,
    "training</w>": 60,
    "reso": 60,
    "resour": 60,
    "resource": 60,
    "resource-": 60,
    "resource-efficient</w>": 60,
    "infer": 60,
    "inference": 60,
    "inference.</w>": 60,
    "Python": 60,
    "Python?</w>": 60,
    "Python</w>": 60,
    "high": 60,
    "high-": 60,
    "high-le": 60,
    "high-lev": 60,
    "high-leve": 60,
    "high-level</w>": 60,
    "programming</w>": 60,
    "language</w>": 60,
    "wi": 60,
    "wid": 60,
    "widely</w>": 60,
    "us": 60,
    "used</w>": 60,
    "artificial</w>": 60,
    "we": 60,
    "web</w>": 60,
    "development": 60,
    "development,</w>": 60,
    "dat": 60,
    "data</w>": 60,
    "sci": 60,
    "science,</w>": 60,
    "au": 60,
    "auto": 60,
    "autom": 60,
    "automation": 60,
    "automation.</w>": 60,
    "does</w>": 60,
    "self-attention</w>": 60,
    "work": 60,
    "work?</w>": 60,
    "Self-attention</w>": 60,
    "computes</w>": 60,
    "sca": 60,
    "scale": 60,
    "scaled</w>": 60,
    "dot": 60,
    "dot-": 60,
    "dot-pro": 60,
    "dot-product</w>": 60,
    "mat": 60,
    "matri": 60,
    "matrix</w>": 60,
    "oper": 60,
    "operation": 60,
    "operations</w>": 60,
    "over</w>": 60,
    "quer": 60,
    "queri": 60,
    "querie": 60,
    "queries,</w>": 60,
    "key": 60,
    "keys,</w>": 60,
    "val": 60,
    "valu": 60,
    "values</w>": 60,
    "mo": 60,
    "model</w>": 60,
    "toke": 60,
    "token</w>": 60,
    "rel": 60,
    "relation": 60,
    "relations": 60,
    "relationsh": 60,
    "relationshi": 60,
    "relationship": 60,
    "relationships</w>": 60,
    "ac": 60,
    "acro": 60,
    "acros": 60,
    "across</w>": 60,
    "sequ": 60,
    "sequence": 60,
    "sequences.</w>": 60,
    "la": 60,
    "law": 60,
    "law?</w>": 60,
    "Law</w>": 60,
    "system</w>": 60,
    "ru": 60,
    "rule": 60,
    "rules</w>": 60,
    "enfor": 60,
    "enforce": 60,
    "enforced</w>": 60,
    "thro": 60,
    "throu": 60,
    "throug": 60,
    "through</w>": 60,
    "soci": 60,
    "social</w>": 60,
    "gov": 60,
    "gover": 60,
    "govern": 60,
    "government": 60,
    "governmental</w>": 60,
    "inst": 60,
    "instit": 60,
    "institut": 60,
    "institution": 60,
    "institutions</w>": 60,
    "regu": 60,
    "regul": 60,
    "regulat": 60,
    "regulate</w>": 60,
    "conduct</w>": 60,
    "prot": 60,
    "prote": 60,
    "protect</w>": 60,
    "righ": 60,
    "right": 60,
    "rights.</w>": 60,
    "Tel": 60,
    "Tell</w>": 60,
    "abou": 60,
    "about</w>": 60,
    "AI": 60,
    "AI.</w>": 60,
    "Ar": 60,
    "Artificial</w>": 60,
    "In": 60,
    "Intellig": 60,
    "Intelligen": 60,
    "Intelligenc": 60,
    "Intelligence</w>": 60,
    "refer": 60,
    "refers</w>": 60,
    "computation": 60,
    "computational</w>": 60,
    "system": 60,
    "systems</w>": 60,
    "that</w>": 60,
    "perfor": 60,
    "perform</w>": 60,
    "tas": 60,
    "task": 60,
    "tasks</w>": 60,
    "requ": 60,
    "requi": 60,
    "requir": 60,
    "requiring</w>": 60,
    "hum": 60,
    "human": 60,
    "human-": 60,
    "human-like</w>": 60,
    "su": 60,
    "such</w>": 60,
    "reas": 60,
    "reason": 60,
    "reasoning,</w>": 60,
    "problem</w>": 60,
    "solving.</w>": 60
  },
  "special_tokens": [
    "<pad>",
    "<unk>",
    "<s>",
    "</s>",
    "<mask>"
  ]
}